<unk>	0
<s>	0
</s>	0
<pad>	0
。	-2.37114
、	-3.52089
▁	-3.95317
分	-4.11304
が	-4.19592
は	-4.31761
の	-4.43927
時間	-4.45786
▲	-4.50737
に	-4.74492
と	-4.88765
で	-4.9579
を	-5.01443
△	-5.05094
1	-5.06638
2	-5.1677
3	-5.25943
、△	-5.26483
時	-5.31199
)	-5.33023
▲3	-5.42274
4	-5.43864
も	-5.46825
▲4	-5.47677
△4	-5.48446
△3	-5.49583
▲6	-5.50683
▲7	-5.53598
△6	-5.54923
△7	-5.54979
▲5	-5.55189
▲2	-5.55517
△5	-5.56218
か	-5.61413
△8	-5.65223
5	-5.73341
から	-5.75066
△2	-5.77771
」	-5.78651
だ	-5.82631
▲8	-5.86885
五歩	-5.953
「	-5.96346
四歩	-5.97984
▁「	-6.03581
た	-6.06528
六歩	-6.0685
(	-6.08211
る	-6.1367
には	-6.17766
した	-6.19392
」(	-6.20355
手	-6.21914
同歩	-6.25677
6	-6.27701
消費時間は	-6.3364
なら	-6.33777
同銀	-6.34287
7	-6.40582
や	-6.41593
以下	-6.46114
て	-6.47133
する	-6.49665
8	-6.51498
同金	-6.53726
ここまでの消費時間は	-6.54559
し	-6.56024
▲1	-6.58251
がある	-6.63413
△9	-6.63539
時頃の局面	-6.66541
ので	-6.6769
同玉	-6.69958
先手は	-6.70643
後手は	-6.72223
△1	-6.72782
な	-6.73194
10	-6.73479
だが	-6.74666
▲9	-6.7468
30	-6.75673
ここで	-6.76473
飛車を	-6.80208
という	-6.80528
攻め	-6.81034
して	-6.81721
になる	-6.81977
9	-6.82303
同飛	-6.82515
五桂	-6.83344
▁ここで	-6.85085
い	-6.85193
40	-6.86216
ようだ	-6.88341
ている	-6.89425
次に	-6.90554
この	-6.91248
では	-6.93655
角を	-6.96462
勝	-6.97398
です	-6.99831
五銀	-7.01797
三銀	-7.0211
四銀	-7.0229
している	-7.03588
だった	-7.04171
六銀	-7.0475
ない	-7.05095
四角	-7.06295
20	-7.07363
り	-7.08506
五角	-7.09229
受け	-7.09624
銀を	-7.10412
筋	-7.11902
六角	-7.12005
▁11	-7.12114
七銀	-7.12315
分の着手	-7.12394
▁14	-7.12512
ため	-7.14108
三歩	-7.15375
までの消費時間は	-7.1596
先手の	-7.16368
後手の	-7.17627
四飛	-7.17819
後手が	-7.18129
佐藤	-7.18386
まで	-7.18834
った	-7.19005
七歩	-7.19734
一	-7.20298
ら	-7.20305
二金	-7.2065
のは	-7.21282
六飛	-7.23311
先手が	-7.24403
八飛	-7.24748
18	-7.25188
戦	-7.25587
三歩成	-7.25895
ですね	-7.26485
角	-7.26487
二銀	-7.26529
二飛	-7.26612
形	-7.26682
15	-7.27091
▁20	-7.27894
同桂	-7.27897
八金	-7.283
同角	-7.28313
▁15	-7.29363
八銀	-7.30516
七歩成	-7.31394
四桂	-7.31804
局	-7.31852
▁17	-7.32341
三角	-7.32514
▁16	-7.33752
50	-7.34508
六桂	-7.35114
分頃の局面	-7.35414
五歩と	-7.36411
しかし	-7.36608
、▲	-7.37389
く	-7.37773
七角	-7.37871
銀	-7.39167
八玉	-7.39306
二玉	-7.39931
分ごろの局面	-7.40321
だろう	-7.4066
▁21	-7.40692
手目	-7.415
その	-7.41809
19	-7.4184
飛車	-7.43511
九飛	-7.43589
が厳しい	-7.44595
いる	-7.44622
五飛	-7.45178
これは	-7.45257
三金	-7.4598
・	-7.46016
を狙う	-7.46142
になった	-7.46694
順	-7.46785
七桂	-7.47091
三桂	-7.4733
時ごろの局面	-7.47939
また	-7.48249
分の考慮	-7.49172
▁先手は	-7.49697
残り時間は	-7.4982
歩を	-7.50271
れば	-7.50688
ただ	-7.50811
一飛	-7.51151
き	-7.51765
45	-7.52105
▁22	-7.52274
いた	-7.52428
分考えて	-7.52524
代えて	-7.5343
七金	-7.53681
矢倉	-7.54001
すぐに	-7.54284
として	-7.54877
となる	-7.55391
二歩	-7.5554
▁後手は	-7.55907
三角成	-7.57349
先手	-7.58362
現局面までの消費時間は	-7.58436
す	-7.59008
一角	-7.59364
九角	-7.61095
など	-7.61947
金	-7.6221
ながら	-7.6275
歳	-7.63061
金を	-7.63345
歩	-7.63725
八歩	-7.64123
へ	-7.6435
分の考慮で	-7.64399
って	-7.64438
でも	-7.65417
八角	-7.66698
後手	-7.67599
のか	-7.68463
二角	-7.68934
16	-7.69341
だろうか	-7.69436
同香	-7.69711
四歩と	-7.69874
ね	-7.70901
六歩と	-7.70939
こと	-7.71096
回	-7.71109
なかった	-7.71299
▁代えて	-7.71359
そこで	-7.71365
17	-7.71775
え	-7.72114
ます	-7.72132
筋に	-7.722
13	-7.72799
12	-7.72831
九玉	-7.73543
11	-7.73897
一玉	-7.73912
寄せ	-7.7416
七段	-7.74663
第	-7.7498
展開	-7.75134
さ	-7.75592
25	-7.75805
14	-7.76051
大	-7.76206
狙い	-7.76464
のが	-7.76769
七角成	-7.77014
見	-7.77302
そうだ	-7.77486
取り	-7.77645
0	-7.77744
筋を	-7.80156
ー	-7.80248
まだ	-7.80927
将棋	-7.81146
羽生	-7.81926
夕食休憩に入った	-7.82279
桂を	-7.82347
わ	-7.82647
▁18	-7.82679
23	-7.82824
▁23	-7.82869
▁この局面で	-7.82909
-△	-7.82959
六段	-7.83057
目	-7.83472
桂	-7.84066
それ	-7.84618
なので	-7.8463
み	-7.84715
受ける	-7.84897
勝ち	-7.84971
駒を	-7.85603
がない	-7.86494
八角成	-7.86567
っている	-7.86719
四金	-7.87019
玉を	-7.87453
う	-7.88224
級	-7.88607
対局は	-7.89362
24	-7.89514
残り	-7.89545
田中	-7.89657
35	-7.89681
21	-7.89825
A	-7.90528
穴熊	-7.90829
駒	-7.91158
22	-7.91162
馬	-7.91215
26	-7.91243
六金	-7.91438
上	-7.92196
攻める	-7.92199
、▲3	-7.92374
期	-7.92432
一銀	-7.92826
居飛車	-7.92876
のだろう	-7.92937
27	-7.92946
一金	-7.93661
となった	-7.93829
四段	-7.94164
を目指す	-7.94363
同馬	-7.94367
時頃	-7.94867
である	-7.95376
28	-7.96088
九金	-7.9618
右	-7.96431
、▲6	-7.96524
中村	-7.97083
そう	-7.97295
手を	-7.97442
、▲4	-7.9753
渡辺	-7.97543
29	-7.97671
▁△4	-7.97898
五段	-7.97932
▁▲3	-7.97972
られる	-7.98106
できる	-7.9826
になっている	-7.98347
▁△3	-7.98681
どう	-7.98786
三玉	-7.99051
変化	-8.00045
かもしれない	-8.00182
左	-8.00234
、△4	-8.00301
枚	-8.00564
九銀	-8.00778
つ	-8.00912
中	-8.00974
▁▲6	-8.01332
五金	-8.01336
ん	-8.01372
前	-8.01428
▁▲4	-8.01473
の筋	-8.01674
手が	-8.02316
の攻め	-8.02411
型	-8.02574
久保	-8.02613
あ	-8.03252
▁▲7	-8.03353
香	-8.03631
二角成	-8.04581
め	-8.04761
▁1	-8.048
これで	-8.05038
ところ	-8.05165
前に	-8.05274
かどうか	-8.0533
、△7	-8.0556
谷川	-8.05659
、△6	-8.05924
横歩取り	-8.05937
中田	-8.06062
三	-8.06159
、▲7	-8.06165
36	-8.06247
三桂成	-8.06469
される	-8.06791
得	-8.06812
成	-8.06841
打つ	-8.06899
、△3	-8.06912
▁△6	-8.07428
ず	-8.07514
阿部	-8.07639
▁10	-8.07827
佐々木	-8.08007
37	-8.08202
▁△7	-8.08577
郷田	-8.08684
ま	-8.08952
▁△5	-8.0917
55	-8.09282
38	-8.09284
、▲5	-8.0956
詰めろ	-8.09766
振り飛車	-8.09882
筋の	-8.09981
、△5	-8.10162
34	-8.10174
33	-8.10536
ことができる	-8.11117
だけ	-8.11132
ことで	-8.11371
31	-8.1149
▁3	-8.11871
32	-8.12258
少し	-8.12303
▁▲5	-8.12306
分使って夕食休憩に入った	-8.1252
59	-8.12802
打	-8.12894
二	-8.13217
七玉	-8.13499
いい	-8.1354
、▲2	-8.13581
敗	-8.13598
一手	-8.13602
お	-8.13666
直	-8.13689
いく	-8.1404
48	-8.1425
ように	-8.14345
47	-8.14359
三浦	-8.14406
ば	-8.14669
39	-8.14774
後	-8.15226
▁6	-8.15298
畠山	-8.15678
たい	-8.1574
一飛成	-8.15886
よく	-8.15999
出	-8.16646
があった	-8.16699
42	-8.16711
46	-8.17238
藤井	-8.17328
43	-8.17344
41	-8.17511
もある	-8.17578
▁5	-8.17879
七桂成	-8.17898
先に	-8.18022
局面	-8.18057
杉本	-8.1814
深浦	-8.19538
ではなく	-8.19675
44	-8.19776
行方	-8.19793
▁▲2	-8.19807
意味	-8.19938
こ	-8.20392
のだろうか	-8.20413
後手玉は	-8.20695
木村	-8.20994
にくい	-8.21277
次の	-8.21588
分の局面	-8.21845
▁4	-8.21923
む	-8.22359
引き	-8.22512
、△8	-8.22736
千日手	-8.22737
ていた	-8.22801
49	-8.23358
▁7	-8.23519
先手玉は	-8.23546
阿久津	-8.23645
検討	-8.24085
57	-8.24222
王手	-8.24505
山崎	-8.24535
58	-8.24644
れる	-8.24718
のようだ	-8.24721
▁2	-8.24856
ただし	-8.25414
五	-8.25443
打った	-8.25809
51	-8.25899
六香	-8.26283
馬を	-8.26483
56	-8.26546
飛車が	-8.26593
力	-8.26715
駒組み	-8.26739
玉	-8.2698
この局面で	-8.27023
より	-8.27413
52	-8.2746
▁13	-8.27495
九飛成	-8.27877
丸山	-8.27881
▁この	-8.27996
厳しい	-8.28017
54	-8.28134
勝負	-8.28259
先手に	-8.28551
53	-8.28575
一角成	-8.28908
もう	-8.28961
五香	-8.29455
四	-8.29585
広瀬	-8.29753
指し	-8.29883
四香	-8.29936
四歩は	-8.30026
森内	-8.30089
かった	-8.30621
指す	-8.30855
同角成	-8.31115
九角成	-8.31128
近藤	-8.31245
▁△2	-8.31378
森下	-8.31569
豊島	-8.31706
五歩は	-8.32061
松尾	-8.32125
香を	-8.32694
数	-8.32911
さらに	-8.33081
角交換	-8.33091
夕食の注文は	-8.33194
方	-8.33356
▁△8	-8.33375
九段	-8.33533
打ち	-8.33572
橋本	-8.3396
加藤	-8.3425
六歩は	-8.34289
分の長考で	-8.34577
時過ぎの局面	-8.34588
▁19	-8.34602
門下	-8.34983
▁本局の記録係は	-8.35243
していた	-8.35309
北浜	-8.35364
逃げる	-8.35436
手段	-8.35746
分の長考	-8.35793
銀冠	-8.36024
四玉	-8.36056
だと	-8.36204
と思います	-8.36326
月	-8.36417
っ	-8.36561
▁8	-8.3678
四馬	-8.3678
になりそうだ	-8.36787
▁飛車を	-8.36788
B	-8.36853
仕掛け	-8.36875
ような	-8.36988
反撃	-8.37257
南	-8.37317
いて	-8.37392
ン	-8.37662
味	-8.3779
、▲8	-8.3826
鈴木	-8.38265
囲い	-8.38702
れ	-8.3897
気	-8.39019
日	-8.39021
屋敷	-8.39239
村山	-8.39276
ある	-8.39567
逃げ	-8.3968
後手に	-8.40036
にいく	-8.40092
高橋	-8.40261
八段	-8.40337
本局	-8.40448
▁▲8	-8.40457
にも	-8.40564
斎藤	-8.40566
ここは	-8.40666
、△2	-8.40734
七	-8.41036
▁時刻は	-8.41348
の狙い	-8.41511
六	-8.41601
駒が	-8.41935
小林	-8.42056
角換わり	-8.42146
攻め合い	-8.42267
、「	-8.42671
対して	-8.42688
はない	-8.42885
があり	-8.42967
戦い	-8.43044
稲葉	-8.43377
六馬	-8.43445
時過ぎ	-8.43533
筋から	-8.43645
急戦	-8.43648
▁※	-8.43887
を見て	-8.44147
しかない	-8.44185
▁次に	-8.44188
糸谷	-8.44728
先	-8.44757
年	-8.44806
と言われている	-8.44886
やはり	-8.45095
じ	-8.45105
位	-8.45106
と金	-8.45115
居飛車党	-8.4516
島	-8.45237
西川	-8.45366
井上	-8.45609
同竜	-8.45622
詰み	-8.46192
が多い	-8.46223
なる	-8.46272
先崎	-8.46293
角が	-8.46647
千葉	-8.47086
後手も	-8.47126
何か	-8.4758
豊川	-8.48048
村田	-8.4806
かなり	-8.48064
八	-8.48097
順位戦	-8.48227
いない	-8.48413
動き	-8.48495
ス	-8.48534
窪田	-8.4885
四飛と	-8.48861
中川	-8.4903
いった	-8.49364
二と	-8.49386
端攻め	-8.49616
読み	-8.49676
三段	-8.49842
陣形	-8.49851
対局	-8.49951
進行	-8.50089
合い	-8.50101
六玉	-8.50175
分頃	-8.50277
ならば	-8.50621
高野	-8.50706
の局面	-8.50805
一竜	-8.50869
五馬	-8.50946
▁角を	-8.51014
戸辺	-8.51421
六銀と	-8.51855
になって	-8.51878
先手も	-8.5188
としては	-8.51929
美濃囲い	-8.52333
を見せる	-8.52444
以下の詰めろ	-8.5253
五歩で	-8.52538
つつ	-8.53084
ですが	-8.53272
銀が	-8.53281
下	-8.53364
考え	-8.53454
安用寺	-8.53519
分の少考	-8.53564
二飛成	-8.53777
飯塚	-8.53788
飯島	-8.54216
四銀と	-8.54225
された	-8.54468
点	-8.54515
八と	-8.54572
遠山	-8.54689
やすい	-8.54975
三飛	-8.55053
中座	-8.5515
横山	-8.55369
ことになる	-8.55501
▁銀を	-8.55567
三馬	-8.55734
を狙っている	-8.55885
三に	-8.55889
九竜	-8.5597
前例	-8.56034
交換	-8.5612
桐山	-8.56278
澤田	-8.56279
方針	-8.56367
のような	-8.56533
手だ	-8.56548
当たり	-8.56581
作戦	-8.56727
の一手	-8.56732
塚田	-8.56891
次は	-8.56947
同飛成	-8.56979
なし	-8.56981
竜	-8.57073
金井	-8.57308
阪口	-8.5734
七に	-8.57402
の形	-8.57897
西尾	-8.57992
ていく	-8.58016
▁これで	-8.58594
感じ	-8.58618
を防ぐ	-8.59028
棒銀	-8.59279
よりも	-8.59448
に対して	-8.59454
人	-8.59655
棋士室では	-8.59704
永瀬	-8.59807
増田	-8.60162
三飛成	-8.60275
ろ	-8.60401
八に	-8.60427
青野	-8.60434
平藤	-8.60518
脇	-8.60615
七馬	-8.60622
▁ここまでの消費時間は	-8.60712
五同歩	-8.60936
があるので	-8.60971
飛車の	-8.60992
強く	-8.61026
のかもしれない	-8.61032
神谷	-8.6117
られた	-8.61258
駒得	-8.61544
のときに	-8.61868
四に	-8.61868
手で	-8.61869
野月	-8.62086
長岡	-8.62117
千田	-8.62407
一気に	-8.62514
通	-8.62643
難しい	-8.62839
四間飛車	-8.62861
一歩	-8.62912
飛車取り	-8.63028
五歩までの消費時間は	-8.63041
長考	-8.63121
指	-8.63327
大きな	-8.63367
ここから	-8.63497
取れる	-8.63679
なった	-8.63703
五銀と	-8.64033
長沼	-8.64264
ち	-8.64501
どうか	-8.64576
六飛と	-8.64611
六に	-8.64654
追い	-8.64695
▁棋士室では	-8.64712
これ	-8.64787
手順	-8.64921
切り	-8.64985
北島	-8.65202
自陣に	-8.65313
銀取り	-8.65465
大石	-8.6551
宮田	-8.656
ときに	-8.65629
考えている	-8.6563
高崎	-8.6565
中飛車	-8.66101
棋士	-8.66286
単に	-8.664
ほど	-8.66453
四歩までの消費時間は	-8.66455
そうな	-8.66501
出て	-8.66671
ところで	-8.66746
六歩までの消費時間は	-8.66919
寄り	-8.67048
七飛	-8.67073
おり	-8.67099
二に	-8.67117
の将棋	-8.67238
リ	-8.67523
相手の	-8.67542
損	-8.6761
▁残り時間は	-8.67684
分考え	-8.6792
なければ	-8.68054
八飛成	-8.68153
四歩で	-8.68175
から再開される	-8.6823
金銀	-8.68272
片上	-8.68306
せ	-8.68588
現局面で	-8.69164
歩切れ	-8.69199
対応	-8.69287
させる	-8.69385
佐藤は	-8.69492
指し方	-8.69919
負け	-8.69933
通り	-8.70024
村中	-8.70138
六歩で	-8.70142
取られる	-8.7015
と打って	-8.70272
攻めの	-8.7041
七飛成	-8.70464
真田	-8.7056
引く	-8.70587
何	-8.70721
神崎	-8.70801
五玉	-8.70898
ぶ	-8.70955
が考えられる	-8.70984
くる	-8.71338
本局は	-8.71393
取る	-8.71524
使う	-8.71551
活用	-8.71559
んだ	-8.71927
本	-8.71952
強	-8.72006
といった	-8.72042
富岡	-8.72051
藤原	-8.72105
てしまう	-8.72174
着	-8.72247
きた	-8.72401
対局再開	-8.7258
と見られている	-8.72724
着手	-8.72826
せる	-8.72892
形だ	-8.73039
流	-8.73244
受けた	-8.73378
五同銀	-8.7352
てから	-8.73548
持ち	-8.73557
とも	-8.73589
ノータイムで	-8.7409
二歩成	-8.74425
合	-8.74494
両取り	-8.74564
福崎	-8.74605
側	-8.74794
よい	-8.74811
の局面で	-8.7494
度	-8.75085
二竜	-8.75177
浦野	-8.75215
五桂と	-8.75222
しか	-8.75253
こう	-8.75298
やや	-8.7531
相掛かり	-8.75465
後に	-8.75473
されて	-8.75529
三銀と	-8.75723
三間飛車	-8.76021
五歩の	-8.76129
-	-8.76236
森	-8.76246
手損	-8.76467
を受ける	-8.765
▁佐藤は	-8.76665
九馬	-8.76708
対	-8.76723
五歩に	-8.76851
端	-8.77019
よう	-8.7703
回戦	-8.77033
一馬	-8.77062
早い	-8.7775
三銀成	-8.77834
が検討されている	-8.78012
～	-8.78053
あまり	-8.78096
菅井	-8.78131
どこかで	-8.78284
竜を	-8.78315
岡崎	-8.78339
の考慮	-8.78505
九	-8.78695
の交換	-8.7873
～▲3	-8.78732
模様	-8.78811
らしい	-8.78846
分ほど	-8.79076
▁この手で	-8.79233
七銀と	-8.79239
なく	-8.79259
の活用	-8.79261
後手から	-8.79309
八香	-8.79349
▁飛車	-8.79529
同桂成	-8.79595
金取り	-8.7962
石川	-8.79813
されている	-8.7992
ここまで	-8.79974
け	-8.80002
迫る	-8.80223
の順	-8.80317
本譜は	-8.80502
分の考慮だった	-8.80643
八馬	-8.80699
られて	-8.80701
とのこと	-8.80702
言	-8.80773
を見	-8.80785
五歩から	-8.80795
ここ	-8.80953
生	-8.81036
船江	-8.8114
時の局面	-8.8125
泉	-8.81293
ました	-8.81408
二馬	-8.81702
牧野	-8.81745
使って	-8.81991
行	-8.822
日浦	-8.82377
入玉	-8.82414
玉が	-8.82812
手に	-8.82868
▁先手の	-8.82954
四同歩	-8.82973
だったが	-8.82996
され	-8.83025
あと	-8.83042
本譜	-8.83186
▁0	-8.83303
伊藤	-8.83383
玉の	-8.83392
じっと	-8.83437
うまく	-8.83741
使い	-8.83777
ません	-8.83872
八歩成	-8.84111
ということ	-8.84116
五に	-8.84119
が難しい	-8.84588
があります	-8.84744
ると	-8.84773
組	-8.84946
受けに	-8.85079
構想	-8.85158
を作った	-8.85255
瀬川	-8.85265
怖い	-8.85411
残	-8.85497
面	-8.85781
▁後手の	-8.85887
と見ている	-8.85979
と金を	-8.86006
引	-8.86166
の声	-8.86259
を作る	-8.86283
駒損	-8.86305
田村	-8.86384
名人戦棋譜速報	-8.86439
入れ	-8.86512
主張	-8.86672
でしょう	-8.86712
よ	-8.86916
出る	-8.87009
分使って	-8.87022
戦法	-8.87023
及川	-8.87032
込め	-8.87063
堀口	-8.87123
ですか	-8.87249
拠点	-8.87348
ずに	-8.8756
動く	-8.87683
突き	-8.87739
手順に	-8.87999
同歩成	-8.88172
▁棋戦優勝は	-8.88252
働き	-8.88332
を見せた	-8.88332
にする	-8.88364
現在	-8.88503
押し	-8.88952
▁12	-8.88993
引いた	-8.89105
時を回った	-8.89332
四角と	-8.896
予想	-8.89601
四歩から	-8.89897
動	-8.89928
そうです	-8.89931
しまう	-8.90135
間	-8.90566
安全	-8.90617
二香	-8.90839
用	-8.91046
六歩から	-8.91046
でしょうか	-8.91183
を受けた	-8.91184
八竜	-8.91473
が有力	-8.9157
に代えて	-8.91645
しながら	-8.91773
までの詰めろ	-8.91846
連勝	-8.91889
成り	-8.9192
にいった	-8.91943
形勢は	-8.91943
自陣	-8.91967
三香	-8.92155
攻めが	-8.9216
引いて	-8.9221
もの	-8.92766
▁9	-8.92837
二段	-8.92898
竹内	-8.92905
～▲4	-8.92933
指された	-8.92962
も考えられる	-8.93068
らない	-8.93079
取った	-8.93091
七銀成	-8.93117
重	-8.93141
すれば	-8.93205
土佐	-8.9348
んで	-8.93485
歩の	-8.935
の進行	-8.93661
六角と	-8.93721
腰掛け銀	-8.93923
の変化	-8.9404
ではない	-8.94059
空	-8.94112
先手から	-8.94399
...	-8.94444
上がった	-8.94496
々	-8.94635
ても	-8.94644
先手玉が	-8.94653
100	-8.94735
しばらく	-8.94738
の王手	-8.94859
枚の	-8.94932
とき	-8.94992
ぎ	-8.95007
桂頭	-8.95085
勝又	-8.95283
～△6	-8.95576
からの	-8.95624
角打ち	-8.95673
最	-8.95925
今	-8.96009
歩が	-8.96201
六同歩	-8.96236
!	-8.96238
佐藤が	-8.96408
える	-8.96552
、7	-8.9663
盤	-8.96697
～▲7	-8.96814
堅い	-8.96936
玉頭	-8.96977
石田	-8.9701
、6	-8.97153
となっている	-8.97301
ともに	-8.97337
なっている	-8.97343
並べ	-8.9737
おく	-8.97466
だと思います	-8.97592
明	-8.97708
ものの	-8.98062
的な	-8.98084
攻防	-8.98103
形勢	-8.98164
▁角	-8.98256
羽生は	-8.98347
後手玉が	-8.98439
無	-8.98463
先生	-8.98647
の受け	-8.98682
突き出し	-8.9876
伊奈	-8.98763
思	-8.98825
～△7	-8.98892
ており	-8.9893
七香	-8.9896
寄る	-8.9905
の着手	-8.99053
継ぎ盤	-8.99076
門倉	-8.99114
高見	-8.9921
強い	-8.99227
再び	-8.99244
ほうが	-8.99275
となれば	-8.99509
四歩の	-8.99616
四歩に	-8.99671
切った	-8.99694
だけに	-8.99704
になり	-8.99761
ル	-9.00132
中央	-9.00167
大丈夫	-9.00238
含み	-9.00317
なん	-9.00392
長	-9.00398
大変	-9.0063
攻めに	-9.00726
調	-9.00777
ぐ	-9.00807
上がる	-9.00825
利いている	-9.00984
流れ	-9.01029
ひ	-9.01043
地	-9.01438
後手玉に	-9.01448
同銀に	-9.01454
とすれば	-9.01504
手目に	-9.01509
もあった	-9.01545
したい	-9.01775
けど	-9.01778
と見て	-9.02277
ゴキゲン中飛車	-9.02406
端を	-9.02476
詰まない	-9.02519
三と	-9.02534
者	-9.02618
両者	-9.02655
道	-9.0268
攻めを	-9.02846
への	-9.02922
五角と	-9.02973
の投了となった	-9.03063
解説	-9.03135
感	-9.03461
八飛と	-9.03481
互いに	-9.03544
決め	-9.03568
宮本	-9.03596
飛車交換	-9.03743
のほうが	-9.03766
初	-9.0388
移動	-9.04006
手番	-9.04018
あり	-9.04037
頭	-9.04111
金が	-9.04125
逃げた	-9.04161
イ	-9.04358
今度は	-9.04402
実	-9.04421
先手玉に	-9.04477
大平	-9.04526
いきなり	-9.04542
三歩と	-9.04587
現局面は	-9.04589
進める	-9.04824
スマートフォン	-9.04987
▁控室では	-9.05059
話	-9.0513
バランス	-9.05134
持久戦	-9.05252
定跡	-9.05421
ど	-9.05434
いずれも	-9.05494
......	-9.05593
石田流	-9.05602
シ	-9.05657
前例は	-9.05674
四角成	-9.05776
を用意した	-9.05781
しない	-9.06017
はっきり	-9.06024
▁金を	-9.06059
小倉	-9.06084
が狙い	-9.06086
のも	-9.06105
自信	-9.0611
上部	-9.06272
すると	-9.06476
を狙った	-9.06494
攻めて	-9.06501
られ	-9.06509
六歩に	-9.06657
六角成	-9.06711
狙いだ	-9.06715
そ	-9.0686
粘り	-9.06879
とは	-9.06963
こちら	-9.06976
筋が	-9.07007
秒	-9.0723
ご	-9.07478
▁互いに	-9.07484
六歩の	-9.07507
っと	-9.07575
はある	-9.07661
辛抱	-9.07847
さばき	-9.08201
に構えた	-9.08229
九歩	-9.08301
～△4	-9.0835
ことが多い	-9.08369
なくなる	-9.08396
切る	-9.08466
自然な	-9.08538
、▲1	-9.08545
が生じる	-9.08596
八代	-9.08648
上がり	-9.08769
とした	-9.08782
上野	-9.08893
▁じっと	-9.08935
かもしれません	-9.09127
そば	-9.09128
思い	-9.09222
名人	-9.09396
を防いだ	-9.09412
相振り飛車	-9.09443
検討陣	-9.09484
相手に	-9.09513
盤上	-9.09543
桂取り	-9.09641
び	-9.0969
ひとつ	-9.09955
:	-9.0996
を選んだ	-9.09992
ちょっと	-9.10038
振り飛車党	-9.10211
出した	-9.10234
二飛と	-9.10237
時刻は	-9.10247
筋は	-9.10299
龍	-9.10362
角の	-9.10365
が続く	-9.10385
ほそ島や	-9.1043
好	-9.10488
定	-9.10495
に出る	-9.10499
、8	-9.105
モニター	-9.10548
～△3	-9.1061
所	-9.10644
作	-9.10656
?	-9.10757
ていない	-9.10938
▁銀	-9.11027
がありそうだ	-9.11031
ポイント	-9.11126
五飛と	-9.11186
ッ	-9.11265
場合	-9.11378
危険	-9.11523
どうやら	-9.11537
二銀と	-9.11553
持ち時間	-9.1156
チ	-9.11701
内藤	-9.11755
左美濃	-9.11787
カ	-9.11939
場所	-9.12139
指している	-9.12279
守り	-9.12325
のですが	-9.12435
先手陣	-9.12535
応	-9.12615
させて	-9.12791
効果	-9.12863
事	-9.12959
苦しい	-9.13169
の両取り	-9.13221
まま	-9.13354
つもり	-9.13408
でした	-9.13562
すでに	-9.13643
仕掛けた	-9.13724
なり	-9.1387
みろく庵	-9.13878
位置	-9.13977
までの詰み	-9.14128
指した	-9.14233
指されている	-9.1461
八銀と	-9.15009
歩得	-9.15028
対局室	-9.15028
開	-9.15154
要	-9.15186
～▲6	-9.1529
さん	-9.15347
攻め駒	-9.15382
自	-9.15455
める	-9.15464
と上がる	-9.15565
五歩には	-9.15661
出た	-9.15884
が気になる	-9.15937
ク	-9.16097
にして	-9.16238
詰む	-9.16287
最後の	-9.16289
一着	-9.16295
込む	-9.16368
四同銀	-9.16533
十分	-9.1657
としても	-9.16573
以上	-9.16623
夕食休憩	-9.16719
つけ	-9.16753
七と	-9.16859
それは	-9.17047
現局面	-9.1706
開始	-9.17176
突き捨て	-9.17204
この局面	-9.17214
正	-9.17274
七歩と	-9.17432
このあと	-9.17433
逆転	-9.17458
不	-9.17481
～△2	-9.17579
切って	-9.17605
られている	-9.17696
違い	-9.17723
三の地点	-9.17934
筋で	-9.18053
▁▲1	-9.18165
本局の	-9.18214
のある	-9.18372
様子	-9.18467
中央に	-9.18511
記録係	-9.18618
本日	-9.18633
立ち	-9.18643
石井	-9.18729
同銀は	-9.18789
相手	-9.18793
筋の歩を	-9.19151
二金と	-9.19316
のように	-9.19413
らず	-9.19437
どちら	-9.19482
急	-9.19516
二銀成	-9.19542
させ	-9.19616
後手陣	-9.19716
に出た	-9.19738
取れば	-9.19899
われ	-9.20072
ことが	-9.201
上村	-9.20464
形で	-9.20466
一歩成	-9.20598
手に達した	-9.20631
島本	-9.20639
一手損角換わり	-9.20718
しい	-9.20734
足	-9.2077
ッと	-9.20802
なかなか	-9.20806
初手	-9.20918
いま	-9.21085
攻防手	-9.21196
回る	-9.21201
手がある	-9.21288
控室では	-9.21498
外	-9.21604
▁△9	-9.21626
立つ	-9.21723
を消す	-9.21777
切れ	-9.21815
飛	-9.21837
感想戦	-9.21859
この手は	-9.21904
隙	-9.22013
例えば	-9.2204
っていた	-9.22119
間に	-9.22128
が残る	-9.22171
穴熊に	-9.22401
ために	-9.2268
考えて	-9.22699
と取る	-9.22712
回って	-9.22961
同歩に	-9.2311
飛車先	-9.23185
三同金	-9.23364
を目指した	-9.23377
▁消費時間は	-9.23396
危ない	-9.23409
～▲8	-9.23463
手厚い	-9.23478
時になり	-9.23553
ておく	-9.23586
と引く	-9.23616
八金と	-9.23673
同玉は	-9.23708
大駒	-9.23923
どちらも	-9.23942
楽しみ	-9.24014
転回	-9.24043
堅く	-9.24137
後手番	-9.24223
四同飛	-9.24226
います	-9.24255
川上	-9.24427
のでは	-9.24564
かわす	-9.24696
動か	-9.24718
受けて	-9.24733
▁しかし	-9.24763
を見た	-9.2477
の動き	-9.24786
はまだ	-9.24788
来	-9.2482
構え	-9.24985
局面は	-9.25016
いつでも	-9.25124
断	-9.25178
厚み	-9.25195
二桂成	-9.252
端に	-9.25228
同飛に	-9.25379
、△9	-9.25621
このまま	-9.2563
しており	-9.25652
三同銀	-9.25736
筋の歩	-9.25771
かな	-9.25808
を生かして	-9.25892
同銀成	-9.25956
藤森	-9.25988
進んだ	-9.26054
真	-9.26086
させた	-9.26218
ほとんど	-9.2638
五同歩は	-9.26418
昇級	-9.26474
九の	-9.26517
五歩が	-9.26547
>	-9.26564
すべて	-9.26566
近く	-9.26603
でどうか	-9.26641
五桂が	-9.26735
ポ	-9.26927
同金に	-9.26979
あった	-9.27099
バ	-9.27122
成桂	-9.27152
タ	-9.27171
に構える	-9.27221
本譜の	-9.27228
六同銀	-9.27377
=	-9.27381
銀の	-9.27399
馬が	-9.27552
してから	-9.27553
手筋	-9.27562
していく	-9.27565
指し回し	-9.27591
▁△1	-9.27616
～△5	-9.27755
のではないか	-9.2776
角取り	-9.2784
を狙って	-9.27912
つらい	-9.27965
嫌	-9.27984
の詰めろ	-9.28032
、▲9	-9.28078
られない	-9.28092
げ	-9.2823
口	-9.28248
入り	-9.2832
時間を切った	-9.28351
パ	-9.28401
田	-9.28404
同じ	-9.28647
入手	-9.2876
和	-9.2896
～▲5	-9.29085
筋に飛車を	-9.2911
もありそうだ	-9.29118
まず	-9.29182
香取り	-9.29197
完成	-9.29305
手厚く	-9.29323
対局再開は	-9.29444
といわれている	-9.29479
ありません	-9.29514
出す	-9.29518
攻め合う	-9.29575
▁▲9	-9.2969
が予想される	-9.29712
小	-9.29757
同金は	-9.29845
右玉	-9.29995
に対し	-9.30005
進む	-9.30011
五同桂	-9.30019
研究	-9.30045
四の	-9.30072
玉形	-9.30086
実現	-9.30159
角頭	-9.30237
上が	-9.30247
ほぼ	-9.30249
後手玉を	-9.30343
いったん	-9.30381
を用意している	-9.30417
分の長考だった	-9.30472
を消した	-9.30633
方が	-9.3093
の残り時間は	-9.30961
づらい	-9.30982
名	-9.31122
一手だ	-9.3114
八銀成	-9.3115
七の	-9.31178
良く	-9.31244
消	-9.31343
早繰り銀	-9.31404
控え室	-9.31416
走	-9.31494
早くも	-9.3152
と引いて	-9.31556
打って	-9.31617
続いて	-9.31656
心	-9.31667
関	-9.31693
的に	-9.31702
ひと	-9.31824
九歩成	-9.31853
二玉と	-9.31908
可能性	-9.31935
必要がある	-9.31936
局は	-9.31985
昼食休憩	-9.32044
端歩	-9.32102
歩で	-9.32152
来訪している	-9.322
五同飛	-9.32295
めて	-9.32337
攻めていく	-9.32356
～▲2	-9.32372
しっかり	-9.32424
やり	-9.32516
防	-9.3255
右辺	-9.32876
九香	-9.32977
の反撃	-9.33193
返	-9.33205
れた	-9.3322
深く	-9.33419
C	-9.33468
八桂成	-9.33583
三竜	-9.33592
七同金	-9.33653
と上がった	-9.33673
てきた	-9.34036
が利く	-9.34132
もあり	-9.34138
ところだ	-9.34192
と同じ	-9.34195
角道	-9.34227
一番	-9.34231
自陣の	-9.34351
?」	-9.34367
ド	-9.34465
までは	-9.34476
取って	-9.34601
不満	-9.34669
活用する	-9.34845
戻	-9.34918
詰ま	-9.34984
成銀	-9.35033
発	-9.35044
くらい	-9.35181
決め手	-9.35241
▁金	-9.35382
とする	-9.35453
があって	-9.35479
つく	-9.35542
攻撃	-9.35626
飛車先を	-9.35671
初段	-9.35682
の作戦は	-9.35715
席	-9.35873
仕掛ける	-9.35961
非常に	-9.3598
▁これは	-9.36027
都成	-9.36195
できれば	-9.362
八玉と	-9.36258
佐藤紳	-9.36288
七の地点	-9.36573
おいて	-9.36597
松本	-9.36598
▁昼食の注文は	-9.36671
を見せて	-9.36682
ラ	-9.3672
対局開始	-9.36824
三浦は	-9.36863
銀で	-9.36871
声	-9.36908
タイミング	-9.36942
逆	-9.36944
あるいは	-9.37112
六の	-9.37222
▁ここは	-9.37254
手つきで	-9.37372
なってきた	-9.37374
まだまだ	-9.37464
どうするか	-9.37489
羽生が	-9.3756
突破	-9.37588
指し手	-9.37618
狙いがある	-9.37676
五桂は	-9.37676
と見た	-9.37698
に組む	-9.37732
棋士室の	-9.37815
歩交換	-9.37883
ノータイム	-9.37889
振り	-9.37935
半	-9.37958
四歩には	-9.38005
約	-9.38036
上に	-9.38073
終局	-9.38144
体	-9.38146
戦型	-9.38296
成功	-9.38352
畠山鎮七段	-9.38355
玉頭に	-9.38388
タイミングで	-9.38481
も有力	-9.38527
がいい	-9.38851
全	-9.38866
が詰めろ	-9.38889
桂が	-9.38898
穴熊の	-9.3892
やすく	-9.38938
用意	-9.39027
利かし	-9.39092
得意	-9.39102
この手で	-9.3921
転	-9.39238
かけ	-9.39248
いか	-9.39301
上がって	-9.39315
四歩が	-9.39348
可能	-9.39377
息	-9.39396
差	-9.39399
広く	-9.39461
にならない	-9.39462
形は	-9.39488
とはいえ	-9.3961
のない	-9.39624
室	-9.39641
一香	-9.39784
ことになりそうだ	-9.39812
知	-9.39819
六歩には	-9.39834
分以上考えている	-9.39861
べ	-9.39894
現	-9.39953
取られてしまう	-9.40062
持ち駒	-9.40075
終盤	-9.40131
前述の	-9.40145
垂らし	-9.40213
の先手	-9.40299
よって	-9.40302
▁今度は	-9.40332
そして	-9.40388
に行く	-9.40389
ようで	-9.40463
初めて	-9.40468
応じ	-9.40474
早	-9.40483
が厳しそうだ	-9.40523
場合によっては	-9.40562
▁本局は	-9.40644
ペース	-9.40715
なくなった	-9.4074
堅さ	-9.40834
昨年	-9.40883
奨励会三段	-9.40893
畠山鎮	-9.40983
の対戦	-9.41003
るか	-9.41122
と進めば	-9.41194
でき	-9.41236
元	-9.41329
六歩が	-9.41332
無理	-9.41426
もあります	-9.41444
六同飛	-9.41494
成り捨て	-9.41598
打ち込む	-9.4163
残り時間	-9.41674
と言われていた	-9.41686
同飛は	-9.41805
相矢倉	-9.41964
中継室	-9.41988
捕獲	-9.42045
今期	-9.42068
勝率	-9.42086
先手勝ち	-9.42186
選択	-9.42203
瞬間	-9.42244
▁歩を	-9.42278
同玉に	-9.42352
八金右	-9.42358
珍しい	-9.42367
優勢	-9.424
分以上	-9.42451
五同角	-9.42464
先手玉を	-9.42516
考えていた	-9.42667
状況	-9.42716
といえる	-9.42717
二同金	-9.42763
逃げて	-9.42899
が厳しく	-9.42936
応じる	-9.4296
久保は	-9.43001
うまい	-9.43044
近	-9.43055
合う	-9.43068
戦で	-9.43089
▁後手も	-9.43095
を取る	-9.43209
▁すぐに	-9.43214
一と	-9.43251
ほ	-9.43267
変	-9.43296
渡辺は	-9.4333
図	-9.4336
野	-9.43395
三枚堂	-9.43481
ける	-9.43486
で先手が	-9.43585
水	-9.43591
これが	-9.43626
局で	-9.43694
さばく	-9.43701
先手陣は	-9.43734
入	-9.43911
激しい	-9.43965
名人戦	-9.43993
九に	-9.43993
多く	-9.44039
壁	-9.44053
成香	-9.441
形が	-9.44107
ようだが	-9.4413
いや	-9.44355
奨励会員	-9.44364
と応じた	-9.44446
決断	-9.44449
今年	-9.44492
手の	-9.44527
▁羽生は	-9.44565
を選ぶ	-9.44585
先手の攻め	-9.44683
ゆっくり	-9.44749
山	-9.44775
三角と	-9.44797
先手番	-9.44805
直接	-9.44814
～△8	-9.44826
逃げれば	-9.4485
同歩は	-9.4487
意	-9.44892
持	-9.44965
を作って	-9.45005
を見ている	-9.45032
▁桂	-9.45166
左辺	-9.45254
佐藤和	-9.45271
捨て	-9.4532
五銀は	-9.45323
部	-9.45425
くなる	-9.45454
合駒	-9.4553
手は	-9.45667
チャンス	-9.45699
横に	-9.457
があるため	-9.45883
先手よし	-9.45923
なるほど	-9.45946
一方	-9.45996
室岡	-9.46015
取られ	-9.46059
考える	-9.46169
もちろん	-9.46375
ようになった	-9.46437
早く	-9.46453
東京	-9.46488
角のライン	-9.46503
意味がある	-9.46508
込み	-9.46519
歩を打った	-9.46537
同	-9.46586
進んで	-9.46699
のほう	-9.46736
▁戦型は	-9.4679
▁過去の対戦成績は	-9.46828
一分将棋	-9.4683
両	-9.46853
つもりだ	-9.46955
広	-9.46981
組み	-9.46988
手目の	-9.4699
訪れ	-9.47357
桂跳ね	-9.47361
太	-9.47362
ひとまず	-9.47365
○	-9.47372
小林健	-9.47403
九と	-9.47461
ふ	-9.4751
小林裕	-9.47511
場合は	-9.47698
ことは	-9.47766
実戦	-9.47881
序盤	-9.47924
後手としては	-9.47955
星野	-9.47967
ようにした	-9.47972
▁さらに	-9.48051
これも	-9.48057
新	-9.48091
が一例	-9.48127
三同桂	-9.48161
大きく	-9.48183
指して	-9.48187
四銀は	-9.48206
込んで	-9.48262
なお	-9.48288
高	-9.48289
と上がって	-9.48302
狙われ	-9.48305
すぐ	-9.48314
四同金	-9.48325
が大きい	-9.48359
によって	-9.4852
は注文なし	-9.48545
堂々と	-9.4866
寄	-9.48704
注文	-9.48728
を決め	-9.48741
まずい	-9.48758
の長考	-9.48773
場	-9.48847
五の	-9.48932
の手が	-9.48954
五角が	-9.48967
の位置	-9.49056
注目	-9.491
三香成	-9.49203
になります	-9.49261
掛け	-9.49313
段	-9.49373
一に	-9.49447
予定	-9.49504
連	-9.49623
中村太	-9.49624
軽く	-9.49716
を選択	-9.4978
勢い	-9.49885
佐藤天	-9.49936
郷田は	-9.50008
、△1	-9.50226
五桂で	-9.50286
を取って	-9.50367
わけ	-9.50374
記	-9.50477
だけで	-9.50498
多	-9.505
を受け	-9.50537
山本	-9.50543
その後	-9.50596
機	-9.5062
死	-9.50643
すぎ	-9.50678
▁ノータイムで	-9.5068
ができる	-9.50732
四同角	-9.5083
後手陣は	-9.50889
のライン	-9.51016
七角と	-9.51153
を採用し	-9.51304
と打たれる	-9.51464
するのは	-9.51492
ますね	-9.51541
星野四段	-9.51569
天	-9.51593
できない	-9.51703
コ	-9.51709
悪い	-9.51766
に入った	-9.51841
必	-9.51929
プロ	-9.51953
づ	-9.51999
路	-9.52022
▁久保は	-9.52024
七香成	-9.5212
で先手	-9.52155
吉田	-9.52188
定食	-9.52315
自玉の	-9.52335
会	-9.52418
一の	-9.52468
代	-9.52504
すごい	-9.52547
有力	-9.52556
ア	-9.52664
淡路	-9.52788
六銀は	-9.52899
局面だ	-9.53027
それでも	-9.53207
技	-9.53234
後の	-9.53245
との声	-9.53263
相当	-9.53407
ついて	-9.53454
森内は	-9.53526
まる	-9.53552
投了	-9.53597
スペース	-9.53658
を作り	-9.53754
黒沢	-9.53755
うどん	-9.53756
を取り	-9.538
を図る	-9.53843
ざ	-9.53877
分将棋	-9.53971
最近は	-9.53975
六同金	-9.53975
退	-9.53996
時半頃	-9.54003
の差	-9.54158
五歩や	-9.54268
けて	-9.54323
が悪い	-9.54333
六竜	-9.54385
六同角	-9.54467
伸ばす	-9.54469
悩ましい	-9.5461
●	-9.54636
果たして	-9.54637
ト	-9.54661
時を過ぎた	-9.54667
糸谷八段	-9.54677
進出	-9.54696
ができた	-9.54753
四竜	-9.54834
安定	-9.54917
が続いている	-9.54992
向かい飛車	-9.55051
利用	-9.55075
ジ	-9.55083
両者の	-9.55099
悪	-9.55112
七桂と	-9.55114
いかにも	-9.55257
の駒組み	-9.55268
と見たか	-9.55332
で後手が	-9.55377
コメント	-9.55389
込んだ	-9.5543
サイト	-9.55475
格好	-9.55475
行われ	-9.55478
▁桂を	-9.5549
迫力	-9.55494
意味もある	-9.55528
逆に	-9.55531
局面が	-9.55536
採用	-9.55567
投了した	-9.55722
実戦例	-9.55723
順は	-9.55825
子	-9.55832
高い	-9.55839
ツ	-9.55844
押さえ	-9.55948
のまま	-9.55948
村田顕	-9.55969
忙しい	-9.55969
制	-9.55986
同と	-9.56016
他に	-9.56048
いている	-9.56215
七段は	-9.56216
代わりに	-9.56217
取れない	-9.56219
仮に	-9.56237
取らずに	-9.56293
止め	-9.5646
工夫	-9.56467
ほかに	-9.56526
どこ	-9.56612
好形	-9.5664
王手で	-9.56652
対戦	-9.5669
戦は	-9.56693
書	-9.56717
五竜	-9.56754
催促	-9.56902
映	-9.56909
気が	-9.56944
余	-9.56955
張	-9.56993
れない	-9.57125
は難しい	-9.57143
指せる	-9.57197
▁控え室では	-9.57267
身	-9.57305
だったようだ	-9.5732
軽い	-9.57414
八同金	-9.57415
再開	-9.57452
七同銀	-9.57457
取られて	-9.57467
現在は	-9.57476
反発	-9.57538
動いた	-9.57598
次の手	-9.57652
できた	-9.57652
後手玉の	-9.5766
途中	-9.57862
同歩なら	-9.57906
長い	-9.57971
でもある	-9.58001
七同桂	-9.58025
つもりだろう	-9.58092
がなく	-9.58123
の利き	-9.58261
だったか	-9.58271
の方が	-9.58315
▁馬	-9.58324
先手玉の	-9.58333
打つ手	-9.58358
になれば	-9.58389
同時に	-9.58626
するか	-9.58709
るのは	-9.58773
かわした	-9.58818
転換	-9.58869
られてしまう	-9.58935
合わせ	-9.59014
の寄せ	-9.59074
桂の	-9.59228
後手の攻め	-9.5924
になるが	-9.5925
西田	-9.59258
ところだった	-9.59314
棋士室	-9.59336
七竜	-9.59349
右銀を	-9.59438
分の少考で	-9.59477
▁棋士室には	-9.59496
取れ	-9.59569
▁渡辺は	-9.59585
期目	-9.59595
驚	-9.59623
五桂の	-9.59631
当然	-9.59643
違う	-9.59653
▁先手も	-9.5967
藤井は	-9.59736
弱	-9.5987
飛車の横利き	-9.59884
の作戦	-9.59913
前進	-9.60051
記者	-9.60068
▁阿部は	-9.6007
番	-9.60086
角の利き	-9.60086
主	-9.60263
と呼ばれる	-9.60318
泉八段	-9.60335
端歩を	-9.60351
一桂	-9.60371
青嶋	-9.60416
の仕掛け	-9.60423
金で	-9.60452
直近	-9.60581
視	-9.60673
形に	-9.6072
桂香	-9.60798
将来	-9.60838
寄って	-9.60845
六飛は	-9.60958
返す	-9.61003
局面を	-9.61057
寄せる	-9.61062
位タイ	-9.61069
キズ	-9.61075
動いて	-9.61132
角で	-9.61288
(18	-9.61297
行く	-9.61322
時前の局面	-9.61331
局あり	-9.61406
時に再開	-9.61434
と打ち	-9.61459
三銀は	-9.61473
先手としては	-9.61475
相	-9.61613
補充	-9.61623
続き	-9.61703
九飛と	-9.61724
先手の飛車	-9.61758
月の	-9.61832
に備えた	-9.61867
じっくり	-9.61876
考えた	-9.61985
経験	-9.61988
必要	-9.62304
で詰み	-9.6248
笑	-9.62517
いるので	-9.62565
きれ	-9.62599
考慮	-9.62604
竜王戦	-9.62613
がよく	-9.62625
良い	-9.62641
前期	-9.62698
てくる	-9.62876
必至	-9.63052
五角成	-9.6307
いずれ	-9.63075
二の	-9.63102
介	-9.63182
しても	-9.6324
▁畠山は	-9.63274
利いて	-9.63282
先手優勢	-9.63304
の見解	-9.63423
▁※「	-9.63503
四角が	-9.63545
について	-9.63551
る手	-9.6359
ないと	-9.63594
が残っている	-9.63692
▁中村は	-9.63762
八歩と	-9.63787
終盤戦	-9.63789
ること	-9.63823
▁端	-9.6385
上部に	-9.63881
▁やはり	-9.63956
このタイミングで	-9.63963
戦う	-9.64056
この手	-9.642
れて	-9.6429
▁歩	-9.64373
収め	-9.64386
フ	-9.64393
手も	-9.64431
▁玉を	-9.64493
格	-9.64515
順位戦では	-9.64599
梶浦	-9.64664
少ない	-9.64788
早逃げ	-9.64795
踏み込んだ	-9.64803
を持って	-9.64831
そのまま	-9.64913
の手	-9.64963
の狙いがある	-9.65035
が投了した	-9.65041
せば	-9.65069
大内	-9.65114
飛車取りに	-9.65213
(19	-9.65323
中住まい	-9.65344
グ	-9.65344
記録	-9.65345
立	-9.65408
支え	-9.65514
一度	-9.6554
今泉四段	-9.65695
畠山成	-9.65757
四角は	-9.65759
放	-9.65797
▁また	-9.65815
三の	-9.65856
ぶつけて	-9.65882
余裕	-9.65892
清算	-9.65892
座	-9.65979
が勝っている	-9.66089
減	-9.66167
構わず	-9.66169
と見られていた	-9.66305
がよい	-9.66331
結論	-9.66449
入った	-9.66486
二玉は	-9.66496
積極的に	-9.66507
六角は	-9.66528
三桂と	-9.6655
レ	-9.66581
薄く	-9.66582
が受けにくい	-9.66712
手だが	-9.66803
消費時間	-9.66838
手堅い	-9.66845
&	-9.66859
相居飛車	-9.66895
▁手筋の	-9.66956
ってきた	-9.66988
考えられる	-9.67087
検討陣は	-9.67107
四飛は	-9.67113
七銀は	-9.67191
打開	-9.67202
的	-9.6725
検討では	-9.6736
を目標に	-9.67387
E	-9.67416
▁馬を	-9.67465
まずは	-9.67548
同様	-9.67555
と打てば	-9.67556
四歩や	-9.67575
準備	-9.67687
谷川は	-9.67716
素	-9.67821
を守る	-9.6795
▁記録係は	-9.68014
歩を取った	-9.68159
渡	-9.68186
があるかどうか	-9.68241
頂け	-9.68258
流行	-9.68369
サ	-9.68394
棋士室に	-9.68398
現局面から	-9.68428
控室で	-9.68446
の両狙い	-9.68541
に入る	-9.68653
激しく	-9.68679
いそうだ	-9.68763
銀交換	-9.68779
んですね	-9.68797
雁木	-9.68817
狭い	-9.68839
食	-9.68845
▁夕食の注文は	-9.6891
されると	-9.68928
難解	-9.68937
やすくなる	-9.68987
すぐには	-9.69008
九桂	-9.69054
策	-9.69062
穴熊を目指す	-9.69069
と思いました	-9.69105
(17	-9.69226
得意の	-9.69239
入室	-9.69252
筋がある	-9.69329
五銀で	-9.69367
が生じ	-9.69572
攻防に	-9.69576
藤倉	-9.69669
が自然	-9.69759
この一手	-9.69785
角を打った	-9.69827
後手玉	-9.69953
手数	-9.69963
成績	-9.70168
たいところ	-9.70297
攻め筋	-9.7033
守りの	-9.70344
入城	-9.70396
にとって	-9.70427
角取りに	-9.70432
を着手	-9.70461
崩	-9.70661
世	-9.7082
が多く	-9.70858
ようでは	-9.70984
二金は	-9.71004
込まれ	-9.71061
二銀は	-9.71153
ようとしている	-9.71155
指されていた	-9.71176
厳しく	-9.71218
んでいる	-9.7122
めた	-9.71266
使	-9.71277
五の歩	-9.71333
でしょうね	-9.71374
勝つ	-9.71382
豊島は	-9.71416
時半	-9.71479
つか	-9.71499
嫌み	-9.7151
を使い	-9.71519
の手筋	-9.71644
再開後	-9.71648
投入	-9.71658
ないように	-9.71833
先手で	-9.71862
決戦	-9.71892
してきた	-9.71973
比	-9.71975
部分的には	-9.71993
ましたね	-9.72091
マ	-9.72101
ロ	-9.72115
破	-9.72117
▁豊島は	-9.72119
八飛は	-9.72151
内	-9.72205
が入った	-9.72207
両者とも	-9.72211
▁藤井は	-9.72242
備え	-9.72242
五同歩に	-9.72247
を見せている	-9.7226
五歩を	-9.72298
のひとつ	-9.72331
ないので	-9.72347
今泉	-9.72363
位置に	-9.72373
下さい	-9.72414
後手勝ち	-9.72551
同飛と	-9.72553
印象	-9.72574
攻められる	-9.7261
封じ手	-9.72662
分ごろ	-9.72687
痛	-9.72692
前の	-9.72736
扇子を	-9.72772
同銀と	-9.72794
いつ	-9.72823
収	-9.72832
と話す	-9.72855
W	-9.72857
どのように	-9.72884
向	-9.72895
を取りにいく	-9.72918
寄らない	-9.73019
▁対する	-9.73069
四歩を	-9.73173
五桂と跳ね	-9.7319
なって	-9.73209
金取りに	-9.73262
プ	-9.73291
計	-9.73296
▁この手	-9.73311
ック	-9.73316
が入れば	-9.73327
二飛は	-9.73359
▁谷川は	-9.73426
ヒモ	-9.73427
で後手	-9.73445
一着だ	-9.73509
整備	-9.73536
前節	-9.736
時間を使って	-9.73603
六歩や	-9.7362
六の歩	-9.73624
逃	-9.73631
薄い	-9.73653
対抗	-9.73662
飛車先交換	-9.73788
歩を打って	-9.73804
せず	-9.73833
と打たれて	-9.73842
結果は	-9.73871
デザイン	-9.73893
手堅く	-9.73921
▁三浦は	-9.73983
同銀で	-9.74023
データベース	-9.74039
』	-9.74039
可能性がある	-9.74116
見え	-9.74121
▁先手が	-9.74123
しつつ	-9.74255
放置	-9.74278
可能性もある	-9.7431
持ち歩	-9.74319
握	-9.74335
シーンが増え	-9.7434
にはレス	-9.7434
ンシブ	-9.74343
▁前例は	-9.74373
命	-9.74471
リード	-9.74487
を是非	-9.74489
残している	-9.74504
ぶつけた	-9.74539
『	-9.74636
詰めろではない	-9.74652
五歩の仕掛け	-9.74731
厚く	-9.74741
新手	-9.74746
五角は	-9.74752
取り込み	-9.74801
休憩	-9.74802
有利	-9.74808
近年	-9.74816
さすがに	-9.74822
入る	-9.74843
二歩と	-9.74875
を消して	-9.74887
畠山は	-9.74893
タブレットでもお試し	-9.74937
通信環境さえあればいつでも	-9.74939
以下の詰み	-9.75049
悪く	-9.75141
形を	-9.75151
▁後手が	-9.75173
抜け	-9.75289
▁ここまで	-9.75299
横	-9.75308
囲	-9.75333
利か	-9.75376
へと	-9.75386
タブレット	-9.75391
頭を	-9.75423
攻めが続く	-9.75446
今日	-9.75462
飛車と	-9.75492
どちらか	-9.75529
手つき	-9.75533
されてしまう	-9.75563
三金と	-9.75587
稲葉は	-9.75601
再度	-9.75663
が見えている	-9.7567
なのか	-9.75731
は先手が	-9.75829
に入って	-9.75854
本局では	-9.75854
居飛車穴熊	-9.75891
盤面	-9.76025
避け	-9.76028
連敗	-9.76032
先手玉	-9.76084
一飛と	-9.76127
際	-9.76144
堅陣	-9.76149
歩損	-9.76155
▁先手玉は	-9.7628
夕食注文は	-9.76297
三歩は	-9.76329
特	-9.76362
としている	-9.76414
三同玉	-9.7647
の展開	-9.76485
戦場	-9.76544
わずか	-9.76561
行方は	-9.76589
六歩を	-9.76646
分からない	-9.76647
▁棋士室の	-9.76727
落ち	-9.76762
利	-9.76826
検討している	-9.76906
始めた	-9.7692
四飛で	-9.76921
進み	-9.76954
見えて	-9.77024
四歩なら	-9.77042
末	-9.7706
代償	-9.77063
応手	-9.77074
飯島七段	-9.77137
の駒	-9.77174
形になった	-9.77187
表	-9.77207
どこでもネット中継をお楽しみ	-9.77219
00	-9.7726
の進行は	-9.77359
遠く	-9.77368
落ち着いて	-9.77371
となり	-9.77384
▁対局再開	-9.77415
自然に	-9.77427
位取り	-9.77464
のため	-9.77468
有吉	-9.77524
離れ駒	-9.77536
継続手	-9.7757
力を	-9.77615
はなし	-9.77639
手番を	-9.7772
かない	-9.77722
を攻める	-9.77723
▁なんと	-9.77747
勢	-9.77769
取	-9.7786
を指す	-9.77927
一つ	-9.77989
をかける	-9.78001
あとは	-9.78066
なのだろう	-9.7807
組み替え	-9.78081
利き	-9.78085
最も	-9.78089
を用意	-9.78139
県	-9.78143
この瞬間	-9.78171
(16	-9.78175
六角が	-9.78185
▁郷田は	-9.78202
早囲い	-9.78258
楽	-9.78265
飛び	-9.78271
七桂と跳ね	-9.78321
即詰み	-9.78343
守	-9.78368
桂を跳ねた	-9.78375
同香成	-9.78504
桂を跳ねて	-9.78514
セット	-9.7861
にくく	-9.78613
桂打ち	-9.78623
さんは	-9.78633
を採用	-9.78663
離れ	-9.78765
状態	-9.78766
はなさそうだ	-9.78773
受けに回る	-9.78793
浮いて	-9.7885
後手よし	-9.78904
自然	-9.78905
の対局	-9.78923
戻って	-9.78963
渡辺竜王	-9.78993
受けにくい	-9.79015
銀を取る	-9.79027
調子	-9.79078
さない	-9.79099
▁このタイミングで	-9.79159
で応じた	-9.79229
の評判	-9.79248
すること	-9.79322
手を止めている	-9.79392
を狙い	-9.79403
問題	-9.79413
好調	-9.79437
桂を取る	-9.7951
渡す	-9.79567
のような手	-9.79616
立って	-9.79697
ということだろう	-9.79707
例	-9.79728
七金と	-9.79749
と応じる	-9.79763
使え	-9.7983
のプロフィール	-9.79864
守備	-9.79865
ついた	-9.79997
成立	-9.80018
が見える	-9.80043
乗	-9.80097
地点	-9.80169
八玉は	-9.80178
大橋	-9.80184
けば	-9.80293
も見	-9.80364
固め	-9.80388
手番が	-9.80463
枚換え	-9.80486
朝	-9.80497
べき	-9.8053
となりそうだ	-9.80544
▁厳しい	-9.80573
分近く考え	-9.80615
二金右	-9.80646
玉のコビン	-9.8066
四の歩	-9.80675
みたい	-9.80693
五角で	-9.80694
この手が	-9.80725
しにいく	-9.80731
大きい	-9.80781
行われた	-9.80807
児玉	-9.8082
を避ける	-9.80906
盤上に	-9.81174
の前に	-9.81192
姿勢	-9.81217
食い	-9.81236
の間	-9.81298
垂れ歩	-9.81299
なさそうだ	-9.81359
困	-9.81392
上から	-9.81485
キ	-9.81592
四の地点	-9.81625
立った	-9.81704
化	-9.81751
心配	-9.8178
この手に	-9.81809
働いて	-9.81847
切	-9.81874
になってしまう	-9.81883
も考えられた	-9.81889
五同歩なら	-9.81936
続け	-9.81991
それとも	-9.82079
合流	-9.82152
三桂と跳ね	-9.82189
▁深浦は	-9.82194
予想していた	-9.82201
この形	-9.82234
市	-9.82256
と見たようだ	-9.82263
目標	-9.82268
駒の	-9.82283
付け	-9.82393
桂で	-9.82409
風	-9.82421
のあと	-9.82508
分の考慮で着手	-9.8252
同一局面	-9.82557
丸山は	-9.82566
次	-9.82587
決	-9.82635
▁投了以下	-9.82649
を消している	-9.82659
渡し	-9.82666
えば	-9.82671
八金は	-9.82725
回った	-9.82735
ブ	-9.82745
スキ	-9.82768
歩突き	-9.82821
質駒	-9.82854
遊び駒	-9.8291
所司和晴七段門下	-9.82913
▁稲葉は	-9.82968
します	-9.83056
左右	-9.83125
加	-9.83132
歩を取る	-9.83194
▁中田は	-9.83222
八銀は	-9.83254
さばけ	-9.83288
三銀で	-9.83294
▁この手は	-9.83317
もない	-9.83368
態度	-9.83375
わけにはいかない	-9.83399
を防いでいる	-9.83515
中村亮	-9.8357
の攻め合い	-9.83606
不成	-9.83624
陣	-9.83691
桂得	-9.83714
飛車を取る	-9.83743
手を戻す	-9.83756
なります	-9.83778
振り飛車の	-9.83851
対策	-9.83909
する手	-9.83917
六段は	-9.83927
いれば	-9.8398
も対応しています	-9.84058
やる	-9.84067
きました	-9.84086
になるので	-9.84155
あらかじめ	-9.8422
られると	-9.84264
どちらが	-9.8432
深浦は	-9.84416
逃げ場所	-9.84439
ぐらい	-9.8455
立て	-9.84553
をかけた	-9.84588
分過ぎ	-9.84601
なさそう	-9.84653
現状は	-9.84795
二同玉	-9.848
弱点	-9.84827
一直線	-9.84881
影	-9.84881
逆襲	-9.84885
いきたい	-9.84928
▁山崎は	-9.84943
持ち駒の	-9.84944
を決めた	-9.84962
打て	-9.85055
▁田中は	-9.85066
八の	-9.85158
ことに	-9.8516
伸ばした	-9.8519
ちょうど	-9.85214
ハ	-9.85214
頭に	-9.85218
を考えている	-9.85325
山崎は	-9.85351
をにらむ	-9.85383
どのような	-9.85392
先手の攻めが	-9.85435
活	-9.85457
居玉	-9.8553
緩	-9.85538
割	-9.85546
飛車の利き	-9.85551
先手陣に	-9.85593
性	-9.85698
出てきた	-9.85715
止まる	-9.85719
わず	-9.85847
前例が	-9.8591
桂を跳ね	-9.85994
当て	-9.86016
手ですね	-9.86021
わからない	-9.86054
ルート	-9.86056
勝った	-9.8606
からの詰めろ	-9.86092
解消	-9.86126
まさ	-9.86187
の出だし	-9.86198
丁寧に	-9.86218
になってきた	-9.86365
指さない	-9.86385
一旦	-9.86387
対する	-9.86421
村田智	-9.86474
六飛で	-9.86515
井出	-9.86565
が急所	-9.86636
筋の位	-9.86692
当時	-9.8671
ものだ	-9.86718
を押さえ	-9.86772
が好手	-9.86813
切ら	-9.86838
▁佐々木は	-9.8685
金銀を	-9.86863
当	-9.86866
進め	-9.8687
嫌な	-9.86943
▁先に	-9.87013
取らせる	-9.87165
合わせる	-9.87197
飛車先の歩を	-9.872
これまで	-9.87236
引け	-9.87292
三歩で	-9.87335
控室の	-9.87372
五の地点	-9.87411
が大きく	-9.87428
そうか	-9.87487
打ち込んだ	-9.87505
銀を引いて	-9.87554
持って	-9.87579
と検討陣	-9.87617
を放った	-9.87646
の可能性	-9.87648
に備える	-9.87653
えた	-9.87694
いよいよ	-9.87702
中継	-9.87751
馬取り	-9.87769
出し	-9.87778
前手	-9.87811
それを	-9.87861
ウ	-9.87915
ビ	-9.87915
が出	-9.88012
対局室に	-9.88047
狙	-9.88069
しておく	-9.88089
伸び	-9.88275
の構え	-9.88361
ふじもと	-9.88427
銀を取った	-9.88431
追われ	-9.88439
少考で	-9.88441
戦型は	-9.88445
▁香を	-9.88446
五桂に	-9.8859
よさそう	-9.88616
後手優勢	-9.88693
に見えます	-9.88703
がかかる	-9.88755
勝負手	-9.88858
打たせ	-9.88862
のさばき	-9.8888
ゆ	-9.88947
火	-9.88947
中原囲い	-9.88954
回り	-9.89007
経過	-9.89121
わけではない	-9.89183
囲う	-9.89207
▁森内は	-9.89222
五歩なら	-9.89223
厳しい攻め	-9.89318
にらみ	-9.89348
雰囲気	-9.89361
金の	-9.89406
同飛で	-9.8944
と上がり	-9.89516
のとき	-9.8961
を示す	-9.8964
いだ	-9.89656
が早い	-9.89658
が薄い	-9.89681
所司七段	-9.89733
王手飛車	-9.89756
利く	-9.89767
ということは	-9.89781
取り返す	-9.89793
そうですね	-9.89796
受けが難しい	-9.89827
手もある	-9.89887
を狙われる	-9.89897
少なく	-9.89933
を見せ	-9.89935
間接的に	-9.89989
ことを	-9.90042
桂馬を	-9.90075
銀を上がった	-9.90124
飛車で	-9.90158
と判断した	-9.90223
候補手	-9.90339
が予想されている	-9.90372
好手	-9.90475
に進む	-9.90524
筋の歩を突く	-9.90546
▁後手玉は	-9.90623
的には	-9.9067
ようやく	-9.9069
慎重に	-9.9069
の打ち込み	-9.90761
木村は	-9.90761
飛車は	-9.90784
五同歩には	-9.90799
開け	-9.90804
負担	-9.90867
▁30	-9.90921
0.	-9.90938
だけでなく	-9.90941
ているので	-9.90971
もし	-9.91121
と進んだ	-9.91149
好位置	-9.91173
えない	-9.91278
所司	-9.91309
浮き飛車	-9.91316
七歩は	-9.91325
盛り	-9.91411
を封じ	-9.91457
まとめ	-9.91462
進	-9.91492
と取って	-9.91516
による	-9.9152
が痛い	-9.91531
弱い	-9.91563
先後	-9.91589
以外	-9.91721
戦では	-9.9173
理	-9.91734
東	-9.9175
権利	-9.91753
二金で	-9.91759
四銀で	-9.9183
よさそうだ	-9.91871
をする	-9.91933
が必要	-9.92081
簡単には	-9.92093
時間を使う	-9.92108
となると	-9.92117
たが	-9.92126
歩を打つ	-9.92127
六銀で	-9.92177
▁行方は	-9.92204
遅れ	-9.92303
玉の逃げ道	-9.92434
配置	-9.92465
差が	-9.92503
以降	-9.92505
読み筋	-9.92619
後手陣に	-9.92645
を含みに	-9.92651
(20	-9.92675
先手持ち	-9.92686
囲いに	-9.927
されていた	-9.92747
囲いの	-9.92887
いで	-9.92902
はず	-9.92953
一玉と	-9.92956
が考えている	-9.92979
ぶつけ	-9.92993
中盤	-9.92999
ぶつける	-9.9301
六の地点	-9.93014
▁丸山は	-9.9312
さず	-9.9312
とのことだ	-9.93125
問題ない	-9.93145
前傾姿勢	-9.93179
銀取りに	-9.9318
ぞ	-9.9318
対局立会人の	-9.93182
右銀	-9.9322
居	-9.93316
桂を取った	-9.9344
縦	-9.93545
七歩で	-9.93598
の取り合い	-9.936
反	-9.93666
のキズ	-9.93721
それぞれ	-9.93726
どんどん	-9.93726
がなくなる	-9.93743
厳しそう	-9.9377
せた	-9.93771
を嫌った	-9.94094
五歩と突いて	-9.94145
別の	-9.94198
先手良し	-9.94249
遠	-9.94316
先ほど	-9.94348
角筋	-9.9442
▁ここから	-9.94463
角道を開けた	-9.94483
そこ	-9.94516
守りに	-9.94537
るのが	-9.94555
けた	-9.9456
金を取る	-9.94585
とされて	-9.94701
に当てて	-9.94722
戦の	-9.94814
落ち着いた	-9.9482
逃がす	-9.94821
の局面は	-9.94837
桂馬	-9.94844
を広げ	-9.94871
っていない	-9.94872
べく	-9.94929
時間以上	-9.94962
打ち込んで	-9.94985
という声	-9.95001
控室に	-9.95183
竜王	-9.95206
駒割りは	-9.95212
藤井システム	-9.95372
▁佐藤	-9.95374
意外	-9.95378
を埋め	-9.95556
高田	-9.95571
ということか	-9.95573
と金が	-9.95575
棋風	-9.95614
一本	-9.95628
の戦い	-9.95675
で対抗	-9.95726
と対戦	-9.9574
竜取り	-9.95768
飛び出し	-9.95786
ことも	-9.95854
ぬ	-9.95926
金銀が	-9.95928
組み合わせ	-9.9595
が少ない	-9.9597
分の長考で指された	-9.95993
三歩に	-9.96028
手持ちに	-9.96088
女流	-9.96091
抜く	-9.96136
顔	-9.96136
阿部は	-9.96153
もあるが	-9.96204
六桂と	-9.96208
筋の歩を突いた	-9.96326
が来訪	-9.96347
全て	-9.96386
同金で	-9.96393
玉頭の	-9.96408
とされた	-9.96422
のでしょう	-9.96476
残りは	-9.96477
運	-9.96483
二桂	-9.9649
と引いた	-9.9652
陣形を	-9.96668
難しかった	-9.9667
ピ	-9.9667
四角で	-9.96676
を放つ	-9.96717
詰めろで	-9.96724
控え室では	-9.96736
働く	-9.96739
を避けた	-9.96875
七銀で	-9.96939
を受けて	-9.97039
渡すと	-9.97063
浮き駒	-9.97135
ぼ	-9.97225
と上がれば	-9.97249
せない	-9.97263
ろう	-9.97305
中村は	-9.97332
最終	-9.97348
やって	-9.97436
かわし	-9.97452
位を	-9.97479
おけば	-9.97501
危	-9.97535
整	-9.97559
にある	-9.97579
踏み込む	-9.97615
気味	-9.97627
将棋は	-9.97662
も考えられたが	-9.97668
と控え室	-9.97749
終了	-9.97769
突っ	-9.97812
四桂と	-9.97829
という順	-9.97829
速	-9.97851
集	-9.97868
(△	-9.97869
森信雄七段門下	-9.97986
速い	-9.98011
角を打つ	-9.98107
粘る	-9.98125
▁木村は	-9.9813
稼	-9.98176
三角は	-9.98184
ですよね	-9.98216
▁再び	-9.98216
まれ	-9.98261
の考慮中に	-9.98326
茶	-9.98328
五桂や	-9.98386
駒組みを進める	-9.98399
別	-9.9843
過ぎ	-9.98513
自玉	-9.98516
筋の歩交換	-9.98532
を消し	-9.98593
で応じる	-9.98623
にした	-9.98663
窪田七段	-9.98675
望	-9.98704
注意	-9.98747
▁第	-9.98776
たときに	-9.9878
たいところだ	-9.98797
指しにくい	-9.9885
飛車打ち	-9.98875
進んでいる	-9.98959
七同玉	-9.98972
早めに	-9.98985
銀打ち	-9.99063
歩を手持ちに	-9.99064
なければならない	-9.99067
同銀なら	-9.99072
近い	-9.99073
この後	-9.99113
進展	-9.99128
下段	-9.99139
形になる	-9.99196
とぶつける	-9.99199
鈴木八段	-9.99239
に当たる	-9.99249
銀を上がる	-9.99264
設置	-9.9929
自身	-9.99311
対抗形	-9.99345
を気にした	-9.99451
と言われ	-9.99512
美濃	-9.99539
を示した	-9.99552
▁両者は	-9.99588
▁順位戦は	-9.99627
寄った	-9.99647
西川和	-9.99669
寄り筋	-9.99734
玉の早逃げ	-9.99751
誘	-9.99776
これには	-9.99778
打たれ	-9.99845
▁杉本は	-9.99865
きそうだ	-9.999
目を	-9.99936
急所	-9.99994
棋譜	-10.0003
みると	-10.0004
ところだが	-10.0008
頑張る	-10.0009
の筋がある	-10.0014
詰め	-10.0015
分考えた	-10.0018
見解	-10.0025
二金左	-10.0025
気持ち	-10.0035
飛車の横利きが	-10.0038
長沼七段	-10.0042
同角は	-10.0042
に対する	-10.0042
局面で	-10.0044
理想	-10.0045
を強化	-10.0048
詰んでいる	-10.0053
勝っている	-10.0054
銀桂	-10.0055
八同玉	-10.0065
攻め合いに	-10.0066
指し直し局	-10.0067
の残り時間が	-10.0067
八桂	-10.007
からの攻め	-10.0078
渡辺が	-10.0083
が示されている	-10.0087
合わせた	-10.0091
王	-10.0091
遠い	-10.0101
脱出	-10.0106
互角	-10.0108
継ぎ盤では	-10.0116
こちらも	-10.0124
手にした	-10.0125
しまった	-10.0125
達	-10.0129
力強い	-10.0132
線	-10.0134
結果	-10.0135
桂を活用	-10.0135
狙いは	-10.0137
しまい	-10.0137
▁小林は	-10.0139
六金と	-10.014
かわして	-10.0141
繰り出す	-10.0144
止まった	-10.0145
ニ	-10.0145
と比べて	-10.0145
に向かう	-10.0145
昇段	-10.0145
頃	-10.0147
付	-10.015
五歩と突く	-10.0151
相手が	-10.0152
を採用した	-10.0152
のが大きい	-10.0155
玉頭を	-10.0161
を生かした	-10.0164
使わせ	-10.0164
裏	-10.0165
なってしまう	-10.0168
からは	-10.0171
最近	-10.0176
五桂打	-10.0183
▁井上は	-10.0186
ついに	-10.019
とう	-10.0192
直前の	-10.0192
なくなっている	-10.0197
物	-10.0204
糸谷は	-10.021
伸ばして	-10.021
検討された	-10.0211
一局	-10.0212
出てくる	-10.0214
多い	-10.0216
難しそうだ	-10.0218
二飛で	-10.0219
▁村田は	-10.0222
念	-10.0223
▁(※)	-10.0224
切り札	-10.0224
古森	-10.0225
突	-10.0226
に期待	-10.0232
駒台に	-10.0233
突け	-10.0239
引き揚げた	-10.0242
以外の	-10.0247
を決める	-10.0254
の急所	-10.026
消え	-10.0262
増	-10.0266
を防いで	-10.0269
と取った	-10.027
ばかり	-10.0278
久保が	-10.0279
三銀までの消費時間は	-10.0281
見えない	-10.0293
と思った	-10.0302
ところに	-10.0305
進めば	-10.0308
空間	-10.0314
に近い	-10.0316
ここ数手	-10.0323
気がします	-10.0323
順がある	-10.0323
を残す	-10.0324
二冠	-10.0324
ということだろうか	-10.0326
いき	-10.0326
現代	-10.0344
将来の	-10.0349
戻ってきた	-10.0353
後手の攻めが	-10.0354
タダ	-10.0364
五銀には	-10.0372
調べ	-10.0375
解	-10.0376
はなく	-10.0381
をしている	-10.0389
が難しく	-10.0395
する狙い	-10.0403
ワ	-10.0403
広い	-10.0409
九段は	-10.0413
▁北浜は	-10.0417
先手の角	-10.0422
を突く	-10.0431
深い	-10.0432
囲いを	-10.0432
冷静に	-10.0433
連続	-10.0433
形だが	-10.0435
分を切った	-10.0446
六同歩は	-10.0447
分ほど考えて	-10.0449
押さえ込み	-10.0452
際に	-10.0461
ひねり飛車	-10.0464
受かる	-10.0464
になりやすい	-10.0482
作り	-10.0483
役	-10.0484
を超え	-10.0486
進めた	-10.0488
▁菅井は	-10.049
繰り出し	-10.0492
手得	-10.0492
のところ	-10.0494
が生き	-10.0499
二枚	-10.0504
も多い	-10.0507
を得意にしている	-10.0524
それで	-10.0526
四の銀	-10.0528
二金打	-10.0529
速攻	-10.0529
あたり	-10.053
手がない	-10.0531
切れない	-10.0533
が得意	-10.0533
できそうだ	-10.0535
などで	-10.0543
ライ	-10.0545
シンプルに	-10.0545
上部脱出	-10.0546
を取った	-10.0553
十	-10.0564
瞬間に	-10.0564
手前の	-10.0564
怖いところ	-10.0565
倒	-10.0565
局の	-10.0565
を阻止	-10.0565
七金右	-10.0567
分になり	-10.0569
四歩と突く	-10.0569
分の大長考	-10.0572
合わせて	-10.0576
再	-10.0582
よし	-10.0583
終	-10.0589
らす	-10.059
戻す	-10.0592
差し	-10.0595
六角で	-10.0599
候補手は	-10.0599
いけば	-10.0599
中村が	-10.0602
桂交換	-10.0604
すぎる	-10.0608
恐れ	-10.0608
少しずつ	-10.0609
応じた	-10.0611
で戦う	-10.0617
同角に	-10.0619
横利き	-10.0623
きている	-10.0624
リスク	-10.0627
三浦が	-10.0627
七銀までの消費時間は	-10.063
がなくなった	-10.063
苦し	-10.0632
!」	-10.0635
現状	-10.0637
追	-10.0642
▁いったん	-10.0646
丼	-10.0647
後手番では	-10.065
そのとき	-10.0653
馬を作る	-10.0656
指せ	-10.0656
開戦	-10.0656
熟考	-10.0663
逃れ	-10.0668
郎	-10.0668
順位戦で	-10.0668
をかけ	-10.0671
四段目に	-10.0672
▁鈴木は	-10.0675
を通す	-10.0676
ということで	-10.0684
奨励会	-10.0686
六歩と突き	-10.0688
妙	-10.0688
否	-10.0689
五桂から	-10.0695
以下詰み	-10.0702
日本将棋連盟	-10.0709
取り込む	-10.0712
八成桂	-10.0714
角道を止めた	-10.0727
を目指している	-10.0728
苦	-10.0729
案	-10.073
ちなみに	-10.073
二成桂	-10.0737
▁竜を	-10.0739
れている	-10.074
しばらくは	-10.0745
王手金取り	-10.0749
問	-10.0751
ことはない	-10.0758
の一着	-10.0765
銀を上がって	-10.0765
いちばん	-10.0772
浮く	-10.0774
で大丈夫	-10.0774
五同金	-10.0785
木村八段	-10.0786
以下の詰めろになっている	-10.0788
60	-10.0789
逃げられる	-10.0791
持てば	-10.0792
迷	-10.0792
本命	-10.0795
引かせ	-10.0795
きった	-10.0797
足りない	-10.0803
平	-10.0806
と思って	-10.0814
どこに	-10.0818
手順は	-10.0819
八角と	-10.0824
金上がり	-10.0829
甘	-10.0834
しています	-10.0835
を緩和し	-10.0836
先手を持って	-10.0836
失敗	-10.0836
の手順	-10.0837
厚い	-10.0839
に行った	-10.0844
残る	-10.0845
逃げずに	-10.0846
▁飛車取りに	-10.0851
一例として	-10.0852
四金と	-10.0853
薄	-10.0853
または	-10.0859
五同銀は	-10.086
▁角交換	-10.0861
りと	-10.0867
分かれ	-10.087
六歩なら	-10.0872
考えられ	-10.0872
も大きい	-10.0875
離	-10.0876
四飛に	-10.0877
評価	-10.0877
のでしょうか	-10.0879
たたき	-10.0882
どうする	-10.0883
七角は	-10.0885
利かす	-10.0886
力強く	-10.0888
耐え	-10.0902
体を	-10.0903
なぁ	-10.0906
走る	-10.091
底歩	-10.0913
検討通り	-10.0918
史	-10.0919
田丸	-10.0919
八金打	-10.0923
を付け	-10.0924
さえ	-10.0927
端の	-10.0929
するのが	-10.0933
六銀までの消費時間は	-10.0934
▁狙いの	-10.0941
桂を跳ねる	-10.0942
二銀で	-10.0952
有効な	-10.0955
が入る	-10.0956
正座	-10.0963
先手にとって	-10.097
を突いて	-10.097
返し	-10.0977
潜	-10.0979
関係者	-10.0982
色	-10.0982
両方	-10.0987
大駒を	-10.0988
と言って	-10.099
後手にとって	-10.099
を挙げ	-10.0993
▁桐山は	-10.0995
突いて	-10.0995
見られる	-10.0996
よりない	-10.1001
に入っている	-10.1003
を許す	-10.1004
時に再開される	-10.1009
軽	-10.1011
作られ	-10.1018
佐藤秀	-10.1028
銀を引いた	-10.1029
八飛で	-10.103
▁屋敷は	-10.1038
の構想	-10.1041
で受ける	-10.1041
声が上がった	-10.1044
使える	-10.1046
脅威	-10.1046
まった	-10.1047
なかったようだ	-10.1048
歩を突き出した	-10.1049
対局を終えた	-10.1049
どおり	-10.1051
使った	-10.1052
六の銀	-10.1053
攻め駒を	-10.1053
撃	-10.1058
合って	-10.1058
八金で	-10.1061
歩切れを解消	-10.1064
角道を止める	-10.1068
ように見える	-10.1071
玉は	-10.1076
四歩と突き	-10.1076
思え	-10.1076
ネ	-10.1089
の狙いは	-10.109
前例の	-10.1091
(▲	-10.1094
を使う	-10.1097
しそうだ	-10.1105
五桂を	-10.1105
いける	-10.111
居玉のまま	-10.1112
三金右	-10.1117
進行だ	-10.1123
のような攻め	-10.1127
後手を持って	-10.1127
一瞬	-10.1133
争点	-10.1133
をどう	-10.1135
重い	-10.1145
に見える	-10.115
六銀に	-10.1153
屋敷は	-10.1164
動かす	-10.1166
があるようだ	-10.1168
ようにして	-10.1168
ですけど	-10.117
カウンター	-10.1176
端から	-10.1183
ゆっくりと	-10.1187
▁矢倉	-10.1189
順位	-10.1191
三銀打	-10.1194
棋士室で	-10.1194
除	-10.1197
ほう	-10.1201
金を上がった	-10.1203
上げた	-10.1205
追撃	-10.1207
五金と	-10.121
詰み筋	-10.1213
成った	-10.1217
存在	-10.122
大阪	-10.122
五銀に	-10.1222
次第	-10.1225
他の	-10.1234
と判断	-10.1237
四同歩に	-10.124
語	-10.1241
焼き	-10.1245
竜が	-10.1245
動いていく	-10.1246
角交換振り飛車	-10.1247
を見る	-10.1249
ばかりの	-10.1251
森内が	-10.1252
どの	-10.1252
日に	-10.1256
▁中継室に	-10.1258
宮本五段	-10.1258
との見解	-10.1261
といって	-10.1261
経	-10.1263
いい手	-10.1265
切れる	-10.1266
今期の	-10.127
に進んでいる	-10.1276
重視	-10.1282
私	-10.1283
羽生善治	-10.1285
あぐら	-10.1285
阿部健	-10.1287
上げる	-10.1288
で先手よし	-10.1292
飛車を引いた	-10.1293
追う	-10.1293
しっかりと	-10.1298
猛攻	-10.1299
豊島が	-10.1301
ガ	-10.1307
金銀の	-10.1315
郷田が	-10.1317
手目コメント	-10.1318
細	-10.134
ナ	-10.1351
しました	-10.1352
四銀に	-10.1355
渋い	-10.1355
となって	-10.1355
があれば	-10.136
向かい飛車に	-10.1361
桂を取り	-10.1362
四飛の	-10.1365
も見える	-10.1366
そうだが	-10.1368
四銀までの消費時間は	-10.137
が調べられている	-10.1374
角交換を	-10.1375
態勢	-10.1375
後手持ち	-10.1377
広瀬は	-10.1378
は珍しい	-10.1378
を優先	-10.1403
耐える	-10.1404
見つか	-10.1417
志向	-10.1417
二角と	-10.1417
以外に	-10.1418
ことなく	-10.1418
投了以下	-10.142
一分将棋に入った	-10.1422
起こ	-10.1425
の切り返し	-10.1433
分ほど考えている	-10.1436
勝利	-10.1437
挟撃	-10.144
うちに	-10.1449
たまま	-10.1451
良さそう	-10.1462
歩を取り	-10.1462
金を取った	-10.1467
筋も	-10.147
銀桂交換	-10.1473
捨てて	-10.148
を入れた	-10.1483
不安	-10.1484
池永	-10.1485
※	-10.1489
置いて	-10.1493
四同歩は	-10.15
なくなって	-10.15
飲	-10.1507
▁と金	-10.1509
出ている	-10.1511
判断	-10.1513
行った	-10.1521
受	-10.1527
将棋の	-10.1527
五段は	-10.1529
四歩と突いた	-10.1532
矢倉の	-10.1534
二玉に	-10.1534
▁糸谷は	-10.1539
が詰めろになる	-10.1539
桂取りに	-10.1542
五角の筋	-10.1544
ことができた	-10.1548
成って	-10.1551
感触	-10.1553
▁阿久津は	-10.1571
たくない	-10.1573
ていたが	-10.1573
十字飛車	-10.1575
手を戻した	-10.1577
もあるかもしれない	-10.1579
上げ	-10.158
難	-10.1583
保留	-10.1586
攻めを催促	-10.1586
なりそうだ	-10.1592
受けがない	-10.1596
を急ぐ	-10.1597
戦える	-10.1598
四歩と突いて	-10.1602
の方	-10.1606
受け方	-10.1607
が良い	-10.1608
特に	-10.1609
あれ	-10.1613
想	-10.1615
雨	-10.162
弾	-10.162
近づいて	-10.162
飛車成り	-10.1626
五の銀	-10.1627
七桂は	-10.1628
この手で持ち時間を使いきった	-10.1635
利かされ	-10.1635
続けている	-10.1638
うな重	-10.1638
一手一手	-10.1639
きて	-10.164
圧	-10.1642
優位	-10.1643
言い	-10.1645
自身の	-10.1646
を選択した	-10.1651
確	-10.1652
筋を突く	-10.1657
の格言	-10.1666
先後同型	-10.1666
序盤の	-10.1666
気配	-10.1667
簡単ではない	-10.1668
▁感想戦は	-10.1673
井上は	-10.1682
攻めた	-10.1686
市出身	-10.1689
に戻った	-10.1689
受けておく	-10.1691
四段は	-10.1697
先の	-10.17
焦点	-10.1701
乱れ	-10.1702
分使った	-10.1703
浮か	-10.1704
三桂は	-10.1707
二玉型	-10.1709
自ら	-10.1709
快	-10.171
が始まった	-10.1711
突入	-10.1712
七銀から	-10.1718
しやすい	-10.1718
おき	-10.1723
詰めろになっていない	-10.1726
つき	-10.1729
歩を突き出す	-10.1732
移	-10.1733
ダ	-10.1733
復	-10.1734
腕	-10.1734
同桂に	-10.174
きれない	-10.1743
じゃない	-10.1748
を指した	-10.1752
ですよ	-10.1754
せずに	-10.1757
肉	-10.1757
(0.5	-10.1761
六歩と突いて	-10.1762
こちらは	-10.1764
の前例は	-10.1766
片	-10.1768
んですけど	-10.1771
ようになる	-10.1774
ダメ	-10.178
を続ける	-10.1782
追って	-10.1784
同じく	-10.1784
ときの	-10.1786
動かし	-10.1786
五飛は	-10.1788
穴熊を	-10.1788
八銀で	-10.1788
突く	-10.179
が出た	-10.1796
素直に	-10.1796
ですかね	-10.1798
微妙	-10.1803
七桂までの消費時間は	-10.1804
想定	-10.1804
いました	-10.1808
ここに	-10.1808
▁本局の	-10.181
三同飛	-10.1812
にかかる	-10.1816
▁広瀬は	-10.1818
この瞬間は	-10.1823
と思っていました	-10.1827
▁25	-10.1827
取らせ	-10.1828
ット	-10.1828
村田は	-10.1837
緩和	-10.184
を整える	-10.184
進めて	-10.1841
他	-10.1843
光	-10.1846
と思われる	-10.185
ミ	-10.185
集中	-10.1854
桂損	-10.1856
後手の飛車	-10.1858
狙いだろう	-10.1861
簡単に	-10.1862
飛車の横利きを通し	-10.1863
のような順	-10.1868
が堅い	-10.1869
逃げ道	-10.187
を生かす	-10.1873
狙いか	-10.188
持将棋	-10.1882
二金寄	-10.1883
着手した	-10.1885
が狙い筋	-10.1893
種	-10.1896
実際	-10.1899
ってくる	-10.19
はいけない	-10.1902
と金作り	-10.1904
▁駒割りは	-10.1907
▁棋士室に	-10.1907
検討が	-10.191
指せない	-10.1913
飛車を引く	-10.1913
格好だ	-10.1921
変わって	-10.1922
てしまった	-10.1922
のかもしれません	-10.1925
をつける	-10.1925
続かない	-10.1926
意見	-10.1928
手抜いて	-10.1929
中田功	-10.1943
六同歩に	-10.1948
同飛なら	-10.1948
出来	-10.1955
引きつけ	-10.1957
んですか	-10.1957
のかな	-10.196
奪	-10.1964
短	-10.1966
載	-10.1966
賞	-10.1966
を持つ	-10.1969
主流	-10.1969
六歩と突く	-10.1971
示されていた	-10.1975
してしまう	-10.1976
二香成	-10.1978
を使った	-10.1981
残っている	-10.1982
▁西川は	-10.1984
この手を	-10.1984
ずつ	-10.1986
西川慶	-10.199
余地	-10.1996
中段	-10.1997
を避け	-10.1998
を残している	-10.2
切り返し	-10.2002
局の前例	-10.2002
七銀打	-10.2006
そのため	-10.2007
通算	-10.2012
でなく	-10.2012
選び	-10.2015
まり	-10.2023
モニターに	-10.2026
こない	-10.2026
交換する	-10.203
温	-10.2037
が長考している	-10.2039
▁通算	-10.204
切り返す	-10.204
ができ	-10.2045
てくれた	-10.205
受け止め	-10.2051
るので	-10.2053
このあたり	-10.2054
っていく	-10.2055
続ける	-10.2057
隣	-10.2061
一金と	-10.2071
の利きが	-10.2075
自陣角	-10.2077
掛かる	-10.2081
手です	-10.2083
ズ	-10.2084
謝	-10.2085
を犠牲に	-10.2085
すかさず	-10.2085
五桂までの消費時間は	-10.2097
られたときに	-10.2098
五の桂	-10.2105
越し	-10.2106
▁相手の	-10.2106
が気になった	-10.211
のではなく	-10.2114
▁素直に	-10.2116
が入って	-10.2122
のみ	-10.2125
自信がない	-10.2126
斎藤は	-10.2127
桂頭攻め	-10.2127
懸	-10.2132
といわれていた	-10.2132
が多かった	-10.2133
飛車を逃げる	-10.2133
級順位戦	-10.2144
に囲う	-10.215
参加	-10.2153
返した	-10.2155
メ	-10.2156
立会人	-10.2156
......」	-10.2159
一発	-10.2165
脇八段	-10.2167
うえ	-10.2169
と逃げて	-10.2184
少	-10.2186
なくなり	-10.2193
同桂は	-10.2195
▁以下	-10.2197
気になる	-10.2204
もっとも	-10.2208
であれば	-10.2209
低い	-10.221
続く	-10.2212
松尾七段	-10.2215
夕食	-10.2215
稲葉が	-10.2215
を補強	-10.2218
角を引いた	-10.222
急所に	-10.2221
姿	-10.2222
狭く	-10.2228
帰	-10.2228
満足	-10.2229
抜かれ	-10.2229
を入れてから	-10.2237
▁両者	-10.2238
と思っていた	-10.2238
▁松尾は	-10.2246
保	-10.2252
斜め	-10.2253
ように思います	-10.2253
突き出す	-10.2253
を間に合わせ	-10.2256
選	-10.2257
かける	-10.2258
土佐八段	-10.2261
香を取る	-10.2273
を検討している	-10.2274
ことができ	-10.2275
繰り替え	-10.2277
自陣を	-10.228
▁竜	-10.2287
二同飛	-10.2288
守り駒	-10.2289
▁王手	-10.229
発見	-10.2295
と控室	-10.2299
渡辺明	-10.23
慌	-10.2301
過去の対戦は	-10.2301
両対局者	-10.2301
直後	-10.2308
三銀から	-10.231
▁対局再開後	-10.2313
初手合い	-10.2314
一飛は	-10.2323
届	-10.2325
▁まずは	-10.2327
に当てる	-10.233
始ま	-10.233
二銀までの消費時間は	-10.233
展開になる	-10.2331
続けて	-10.2335
後手玉に詰み	-10.2337
玉で	-10.2339
(21	-10.2341
合った	-10.2342
ではないか	-10.2343
なあ	-10.2347
を待つ	-10.2347
一玉は	-10.2354
固める	-10.2356
有力な	-10.236
強気	-10.2362
壁銀	-10.2364
かかる	-10.2364
▁次は	-10.2367
▁南は	-10.2368
でしたね	-10.237
展開だ	-10.2373
▁対して	-10.2374
する順	-10.2381
棋戦	-10.2386
取り込んだ	-10.2391
よね	-10.2392
とばかりに	-10.2394
在	-10.2398
中尾	-10.2399
力戦	-10.2405
菅井は	-10.2407
▁安用寺は	-10.2413
八金寄	-10.2413
ています	-10.2419
狙い筋	-10.2419
首を	-10.242
だという	-10.242
たいが	-10.2422
から詰み	-10.2423
発展	-10.2423
逃がした	-10.2426
急所の	-10.2429
痛い	-10.2431
阿部が	-10.2435
香打ち	-10.2436
ール	-10.2437
に組み替える	-10.2441
さんが	-10.2449
過去に	-10.2454
読んで	-10.2454
敗れた	-10.2455
を整え	-10.2456
佐藤の	-10.2457
に組み	-10.2458
佐々木は	-10.2461
ようにしている	-10.2463
高橋は	-10.2467
の強襲	-10.2469
のであれば	-10.247
予想されていた	-10.2475
▁ここも	-10.2476
が受からない	-10.2477
▁斎藤は	-10.249
そろそろ	-10.2497
先攻	-10.2498
受けづらい	-10.25
角筋を止め	-10.2501
三桂不成	-10.2506
二玉までの消費時間は	-10.2508
六飛に	-10.2514
引き揚げる	-10.2519
▁「△3	-10.2521
嫌味	-10.2523
深	-10.2524
積極的な	-10.2526
辛抱した	-10.253
難しく	-10.2532
」「	-10.2537
▁美濃囲い	-10.2538
角を打って	-10.2538
使われ	-10.2539
三同金は	-10.2539
の働きが	-10.2543
開き	-10.2544
関西	-10.2548
王位戦	-10.2552
▁現局面は	-10.2554
後手からは	-10.2554
二角は	-10.2555
いますね	-10.256
五飛で	-10.2563
つける	-10.2565
▁これが	-10.257
普通は	-10.2572
を築く	-10.2572
分に再開される	-10.2573
筋へ	-10.2576
以前	-10.2577
が見え	-10.2582
を外し	-10.2594
ュ	-10.2597
▁棋士室で	-10.2597
三桂までの消費時間は	-10.2598
以下は	-10.26
面白くない	-10.2606
しまいます	-10.2613
があるか	-10.2614
のどちら	-10.2615
▁橋本は	-10.2615
検討されていた	-10.2619
していない	-10.2619
を入れる	-10.2623
観戦	-10.2628
二銀打	-10.263
勝又六段	-10.2634
扇子	-10.2636
▁単に	-10.2644
異	-10.2645
仕	-10.2645
封	-10.2646
梅	-10.2647
スタート	-10.2647
とにかく	-10.2647
指し方だ	-10.2654
王位	-10.2655
迫	-10.2656
▁「▲6	-10.2657
が検討されていた	-10.2657
がないので	-10.2661
敵陣に	-10.2663
▁ついに	-10.2666
鈴木は	-10.2672
囲いは	-10.2672
昔	-10.2672
前述した	-10.2672
検討されている	-10.2682
▁窪田は	-10.2688
自玉が	-10.2692
という判断	-10.2694
たいです	-10.2696
攻略	-10.2698
豊富	-10.2698
このあとは	-10.2698
六歩と突いた	-10.2701
二飛までの消費時間は	-10.2702
が一例で	-10.2704
両者は	-10.2708
取られた	-10.2715
三金は	-10.2716
になりました	-10.2718
一段目	-10.2723
を完成させた	-10.2723
攻勢	-10.2723
逃げ場	-10.2725
似た	-10.2736
日目	-10.2737
▁銀取りに	-10.274
五歩と突き	-10.274
ちゃ	-10.2748
が気になるところ	-10.2749
こういう	-10.2749
ような展開	-10.2751
銀上がり	-10.2751
回戦で	-10.2752
の攻め筋	-10.2753
ほかには	-10.2763
明け	-10.2764
攻防の角	-10.2764
を与え	-10.2765
しているので	-10.2772
さばいて	-10.2774
ゴ	-10.2774
開幕	-10.2774
▁どうやら	-10.2776
しよう	-10.2777
五桂と跳ねる	-10.2778
がぴったり	-10.2788
反撃の	-10.279
八同飛	-10.2791
と見ているのだろう	-10.2798
が嫌だった	-10.2798
幅	-10.2799
にヒモを付け	-10.2803
四銀には	-10.2805
同金なら	-10.2808
ほかの	-10.2809
通常の	-10.2809
戻る	-10.2813
出して	-10.2813
馬の利き	-10.2816
しばらくして	-10.2819
ほうがいい	-10.2821
先手番では	-10.2823
王将戦	-10.2823
四銀成	-10.2823
が間に合う	-10.2825
七同飛	-10.2826
どころ	-10.2826
ませ	-10.2828
先手からは	-10.2829
持ち駒が	-10.2835
で勝負	-10.2836
効果で	-10.284
に見えるが	-10.2844
銀を繰り出す	-10.2844
の交換は	-10.285
タイプ	-10.285
こうなると	-10.285
が決まる	-10.285
▁対局再開の一着	-10.2851
大事な	-10.2852
～▲9	-10.2853
自玉を	-10.286
しにいった	-10.2861
手抜き	-10.2862
突き越し	-10.2863
稲葉八段	-10.2865
の利きを止め	-10.2866
印象だ	-10.2867
手順で	-10.2867
上部を厚く	-10.2874
の中で	-10.2879
一例は	-10.2891
止まっている	-10.2902
可能性が高い	-10.2902
指されて	-10.2907
▁矢倉は	-10.2908
せて	-10.2911
を止めて	-10.2915
音	-10.2921
飛角	-10.2922
呼	-10.2926
絶	-10.2927
逃げると	-10.2927
後手の角	-10.2928
薄くなった	-10.2931
間違いない	-10.2934
二の金	-10.2936
窪田六段	-10.294
の指し手	-10.2951
筋攻め	-10.2957
六銀から	-10.2959
先手ペース	-10.2964
優	-10.2967
離れた	-10.2972
八銀までの消費時間は	-10.2978
遊	-10.2979
ではあるが	-10.2981
上がっている	-10.2982
というのが	-10.2982
暴れ	-10.2992
と判断したようだ	-10.2996
聞こえ	-10.3006
シャ	-10.3006
放置すれば	-10.3008
▁高橋は	-10.302
指される	-10.3026
六同銀は	-10.3028
やまがそば	-10.3032
おそらく	-10.3032
分かりやすい	-10.3032
前傾姿勢で	-10.3032
になっていた	-10.3033
手を渡した	-10.3034
攻められ	-10.3035
が増え	-10.3035
後手番で	-10.3036
読みを入れ	-10.3037
勝勢	-10.3055
雄	-10.3058
勝って	-10.306
八銀打	-10.3062
激	-10.3071
飛車を取った	-10.3074
いるため	-10.3075
ンと	-10.3075
後手良し	-10.3075
という手	-10.3075
いろいろ	-10.3084
序盤から	-10.3084
界	-10.3101
過去の	-10.3107
手を作る	-10.311
千寿司	-10.311
覚悟	-10.3111
連結	-10.3111
着手後	-10.3111
降級	-10.3111
現局面の前例は	-10.3113
マス	-10.3114
自分	-10.3123
が進行の一例	-10.3125
消費時間が	-10.3126
腰	-10.3136
応援	-10.3137
づらく	-10.3138
同龍	-10.3139
室岡七段	-10.3142
常に	-10.3143
八玉型	-10.3145
藤井が	-10.3148
飛車角	-10.3152
に対しては	-10.3153
七金は	-10.3157
本局も	-10.3157
金打ち	-10.3159
相穴熊	-10.3163
当たらない	-10.3163
四同銀は	-10.3167
打たれた	-10.3176
台	-10.3177
相当に	-10.3188
最新	-10.3193
触れ	-10.3198
基本	-10.3205
どこまで	-10.3206
迫って	-10.3211
先手陣の	-10.3212
どれ	-10.3213
と同時に	-10.3213
ランキング	-10.3215
村山七段	-10.3216
の退路	-10.3217
木下	-10.3218
五銀から	-10.3221
を決行	-10.3227
が投了を告げた	-10.3228
と見たのだろう	-10.3232
ておいて	-10.3236
▁対戦成績は	-10.3238
が残って	-10.3239
を支える	-10.3245
が生じている	-10.3249
振った	-10.3249
乱	-10.325
四飛には	-10.3251
打てる	-10.3254
天王山に	-10.3258
右四間飛車	-10.3262
と取らせて	-10.3263
銀を投入	-10.3264
になりそうです	-10.3265
明らかに	-10.327
佐藤康光九段	-10.3271
▁そして	-10.3272
繰り出した	-10.3273
着手から	-10.3282
八香成	-10.3284
出口	-10.3294
くれば	-10.3294
各	-10.3295
を狙える	-10.3297
ことができない	-10.3298
次の一手は	-10.3298
閉じ	-10.3298
六銀成	-10.3299
相腰掛け銀	-10.3299
含	-10.3301
連続で	-10.3311
▁長沼は	-10.3312
はあまり	-10.3317
単	-10.3318
ょ	-10.3323
勝てない	-10.3325
取られそうな	-10.3328
この変化は	-10.3329
左銀を	-10.3332
の予想	-10.3344
んですが	-10.3347
形勢判断	-10.3352
を残した	-10.3354
先手の攻めを	-10.3358
銀を打った	-10.3361
がピッタリ	-10.3367
限	-10.3367
千葉六段	-10.3373
交	-10.3377
あぐらに崩し	-10.3378
極	-10.3378
と引けば	-10.3378
以下の詰めろだ	-10.338
中央の	-10.3381
を押さえる	-10.3385
とみて	-10.3389
ませんでした	-10.3394
てはいけない	-10.3394
傾	-10.3404
派	-10.3405
考慮中	-10.3405
～△1	-10.3409
銀を打って	-10.341
こともある	-10.3416
つもりだろうか	-10.3417
▁平藤は	-10.342
▁今年度	-10.3422
この辺り	-10.3422
とされている	-10.3431
ください	-10.3432
日の	-10.3435
過ぎの局面	-10.3442
伸ばし	-10.3447
石	-10.3453
いって	-10.3455
もあるところ	-10.346
意表	-10.346
取る一手	-10.3466
▁澤田は	-10.3475
の逃げ道	-10.3475
どちらの	-10.3478
手順だ	-10.3494
法	-10.3494
筋の位を	-10.3498
を保留して	-10.3499
▁村山は	-10.3504
の棋士	-10.3505
が示された	-10.3509
形なので	-10.3514
具体的には	-10.3515
しかないが	-10.352
最近の	-10.352
ていなかった	-10.3523
七同金は	-10.3529
通常	-10.3532
堅	-10.3532
玉の囲い	-10.3534
桂を打った	-10.3536
問題は	-10.3543
下ろし	-10.3549
まったく	-10.3549
棋譜を	-10.355
角を取る	-10.3553
玉の堅さ	-10.3554
重ね	-10.3559
を受けずに	-10.3568
済	-10.3569
打診	-10.3569
玉を囲う	-10.3569
八金までの消費時間は	-10.3571
であろう	-10.3573
八同銀	-10.3575
許	-10.3575
はなくなった	-10.3576
歩を補充	-10.3578
と思う	-10.358
ことができれば	-10.358
▁大石は	-10.3583
対振り飛車	-10.3586
期待	-10.3587
司	-10.3595
継ぎ歩	-10.3596
双方	-10.3597
が気になります	-10.3597
昨日	-10.3598
後手陣の	-10.3599
勝数	-10.3604
返し技	-10.3605
を見捨てて	-10.3606
王手竜取り	-10.3606
させない	-10.3613
味がいい	-10.3613
が厳しかった	-10.3624
▁昨年度	-10.3624
安心	-10.3625
が確定	-10.3626
行き	-10.3628
待って	-10.3629
三成桂	-10.3634
の瞬間に	-10.3634
困る	-10.3634
桂を取って	-10.3635
▁福崎は	-10.3639
打てない	-10.3643
の予定	-10.3645
コビン	-10.3646
壁形	-10.3647
示され	-10.3648
メリット	-10.3652
先手勝勢	-10.3653
を防ぎながら	-10.3654
一手で	-10.3656
八の金	-10.366
に映る	-10.3665
働	-10.3666
受けずに	-10.3666
投了を告げた	-10.3667
筋の突き捨て	-10.3669
含みがある	-10.367
先手がいい	-10.3677
凝	-10.368
振り飛車党の	-10.368
女流初段	-10.3681
▁夕食休憩	-10.3684
を乱し	-10.3684
この歩は	-10.3687
先手が勝ち	-10.3689
リーグ	-10.37
六銀には	-10.3704
筋を突き	-10.3704
動かない	-10.3706
ベ	-10.3708
あくまで	-10.3708
...」	-10.372
金を寄って	-10.3727
さばける	-10.3731
勝又清和六段	-10.3736
が薄くなる	-10.3736
中継室では	-10.3736
出だし	-10.3736
糸谷哲郎八段	-10.3737
ましたが	-10.3758
一龍	-10.3762
歩を払う	-10.3764
細かい	-10.3764
分かりません	-10.3764
王将	-10.3766
阿部光	-10.3768
勢力	-10.3768
横から	-10.377
六飛には	-10.3774
その将棋は	-10.3774
鋭い	-10.3776
平藤七段	-10.3778
～▲1	-10.3779
とともに	-10.378
階の	-10.3783
対応する	-10.3788
失	-10.3789
八金上	-10.3791
貴重な	-10.3792
イメージ	-10.3792
王手銀取り	-10.3792
▁歩を打って	-10.3793
佐藤康	-10.3795
ころの局面	-10.3798
筋の歩を伸ばし	-10.3805
の基本	-10.3807
押さえる	-10.3809
棋聖戦	-10.3813
公式戦	-10.3813
辛抱する	-10.3817
西	-10.3818
活躍	-10.3821
らしく	-10.3821
を警戒した	-10.3823
気に	-10.3824
あとに	-10.3826
▁待望の	-10.3827
香得	-10.384
全勝	-10.3841
四飛までの消費時間は	-10.3841
モ	-10.3848
を楽しみに	-10.385
の交換を入れ	-10.3852
味のいい	-10.3855
控え室で	-10.3857
垂らす	-10.386
叩き	-10.3862
この場合は	-10.3864
都	-10.3874
受けるなら	-10.3876
プラス	-10.3877
家	-10.3877
うーん	-10.3877
最善	-10.3877
同成銀	-10.3879
生じ	-10.3888
(22	-10.3892
対局数	-10.3893
連打	-10.3896
取るのは	-10.3902
きつい	-10.3903
貴	-10.3905
程度	-10.3906
公式戦で	-10.3912
打たれる	-10.3914
使っていく	-10.3914
八銀不成	-10.3917
角を取った	-10.3924
の展開は	-10.3929
躍	-10.3933
カレー	-10.3934
うっかり	-10.3934
銀を繰り出して	-10.3934
たとえば	-10.3934
枚目の	-10.3941
銀を引く	-10.3944
▁それでも	-10.3962
我慢	-10.3963
が指された	-10.3964
言われ	-10.3966
いでいる	-10.3972
両者ともに	-10.3977
▁控室の	-10.3979
二金までの消費時間は	-10.3979
銀の進出	-10.3982
を避けて	-10.3988
夜	-10.3991
で勝負する	-10.3993
たたく	-10.3994
後手玉が詰む	-10.3996
五同香	-10.4001
交換した	-10.4006
をかけて	-10.4006
になりそう	-10.4007
検討していた	-10.4012
のは難しい	-10.4014
聞	-10.4018
粘	-10.4019
視野に入れ	-10.402
分を過ぎた	-10.402
に持ち込む	-10.402
方針だ	-10.4023
(15	-10.4028
若手	-10.4032
将来的に	-10.4034
かつ	-10.404
焦	-10.4042
詰みはない	-10.4052
を抱え	-10.4057
で詰む	-10.4066
終盤で	-10.407
予	-10.4076
推	-10.4078
駆け引き	-10.4078
良かった	-10.408
が成立する	-10.4085
難しいようだ	-10.4086
玉頭戦	-10.4087
よかった	-10.4091
二銀不成	-10.4091
ずっと	-10.4092
を確認し	-10.4094
戻した	-10.4094
棋王	-10.4096
はできない	-10.4098
締	-10.4099
六と	-10.4106
を指摘	-10.4106
愛	-10.4107
務	-10.4107
自体は	-10.4107
が来訪した	-10.411
分を使って	-10.4113
持っている	-10.4114
端歩を突いて	-10.4116
を警戒し	-10.4117
感想戦で	-10.4122
王座戦	-10.4124
超速	-10.413
間合い	-10.4133
君	-10.4136
ギリギリ	-10.4137
力強い手つきで	-10.4138
を突いた	-10.4144
時間を使っている	-10.4147
二同銀	-10.4148
確実に	-10.415
少し前	-10.4153
お互いに	-10.4154
あれば	-10.4156
既に	-10.4159
星野良生四段	-10.4166
殺到	-10.4166
もあったが	-10.4168
千日手局	-10.417
難解な	-10.417
九桂成	-10.4172
▁いよいよ	-10.4173
足り	-10.4179
川	-10.4181
を利かす	-10.4192
/	-10.4195
比較的	-10.4195
侵入	-10.4195
捌き	-10.42
で対抗する	-10.4203
二成銀	-10.4204
持ち駒に	-10.4205
いやー	-10.4206
とかわす	-10.4206
猛	-10.4206
っており	-10.421
冷静	-10.4211
なくて	-10.4212
八金左	-10.4213
の棋風	-10.4215
逃げておく	-10.4217
事前に	-10.4217
ようという	-10.4221
をとがめ	-10.4222
五銀打	-10.4225
時を回り	-10.4225
田中悠	-10.4226
渡しても	-10.4228
意外に	-10.4241
▁阪口は	-10.4241
雰囲気だ	-10.4242
古	-10.4252
杯	-10.4254
時ちょうどの着手	-10.4254
理由	-10.4254
決定	-10.4256
穏やかに	-10.4258
これ以上	-10.426
早指し	-10.4261
お互い	-10.4261
自信なし	-10.4261
ってしまう	-10.4265
じゃ	-10.4267
がかかった	-10.4275
直す	-10.4277
五銀までの消費時間は	-10.4281
面白い	-10.4283
を通した	-10.4284
まわ	-10.4285
じっくりと	-10.4285
を確保	-10.4291
に備えて	-10.4292
詰めろをかけ	-10.4294
詰めろになっている	-10.4295
五桂には	-10.4299
互いの	-10.43
筋を突いて	-10.4302
げる	-10.4307
付き	-10.4309
寄せ合い	-10.431
価値	-10.4312
この局面で夕食休憩に入った	-10.4319
られていた	-10.4323
つなが	-10.4328
形を決め	-10.433
五銀や	-10.4335
にヒモをつけた	-10.4337
上げて	-10.4341
石田和雄九段門下	-10.4343
を与える	-10.4343
制圧	-10.4344
当たって	-10.4345
であり	-10.4352
進めている	-10.4352
▁急所の	-10.4353
先手の攻め駒	-10.4356
が王手になる	-10.4364
▁戸辺は	-10.4366
星	-10.4371
▁王手で	-10.4372
を得意としている	-10.4373
着実に	-10.4373
残留	-10.4373
分を超えた	-10.4373
いなかった	-10.4377
挙げ	-10.4382
攻めの拠点	-10.4384
のは大きい	-10.4384
五段目に	-10.4387
▁両者は本局が初手合	-10.4392
の多い	-10.4397
烈	-10.4402
スピード	-10.4403
屋敷伸之九段	-10.4403
こじ開け	-10.4403
悩	-10.4403
まで詰み	-10.4404
不足	-10.4406
踏み	-10.4409
千日手模様	-10.441
八飛までの消費時間は	-10.4411
四と	-10.4412
戦力	-10.4416
筋の歩を交換	-10.4423
難しそう	-10.4425
の変化は	-10.4429
とみた	-10.4435
指さず	-10.4436
を許さない	-10.4438
の指し手は	-10.444
でしたか	-10.444
が生きる	-10.4442
先手玉も	-10.4448
取らせて	-10.4451
いていた	-10.4453
桂の活用	-10.4454
おきたい	-10.4458
しまえば	-10.4463
カナ駒	-10.4463
先手玉に詰み	-10.4465
戦力を	-10.4465
明快	-10.4475
▁控え室の	-10.4482
を残して	-10.4486
消費	-10.449
肝	-10.4493
と取れる	-10.4493
取らない	-10.4498
確認	-10.4499
秒読み	-10.4501
筋に歩を	-10.4502
攻め込む	-10.4503
つつある	-10.4505
山崎八段	-10.4513
▁近藤は	-10.4516
もありそう	-10.4516
算	-10.4518
ひどい	-10.4523
仕方がない	-10.4523
そちら	-10.4523
もしくは	-10.4523
類型	-10.4526
上記の	-10.4527
やすくなった	-10.4528
換え	-10.4529
▁船江は	-10.4536
攻め続ける	-10.4537
玉を固め	-10.454
▁増田は	-10.4541
方針のようだ	-10.4541
有	-10.4548
五桂の筋	-10.4549
藤井九段	-10.455
利かない	-10.4553
神	-10.4553
条件	-10.4554
頼	-10.4554
を受けている	-10.4563
移動した	-10.4563
▁牧野は	-10.4567
ライン	-10.457
自分から	-10.4572
触	-10.4573
てしまいそう	-10.4582
七の銀	-10.4582
午後	-10.4585
枚で	-10.4587
棋士室に姿を見せ	-10.4588
手を渡す	-10.4595
良し	-10.4598
挙げられ	-10.4603
作戦だ	-10.4614
オ	-10.4615
敢	-10.4615
表情	-10.4615
時間を使わずに	-10.4615
一桂成	-10.4622
詰ます	-10.4632
四飛成	-10.4636
塚田九段	-10.4637
五飛戦法	-10.4643
冷	-10.4644
利かせた	-10.4651
も難しい	-10.4652
以下の詰めろになる	-10.4652
あとで	-10.4656
筋を突いた	-10.4657
勝負する	-10.4658
しょう	-10.466
連勝中	-10.4661
恐れがある	-10.4663
捨てる	-10.4665
が消える	-10.467
桂を打って	-10.4671
木	-10.4674
課題	-10.4676
号	-10.4676
苦労	-10.4676
もあって	-10.4678
とコメント	-10.4679
歩を垂らした	-10.4683
そうにない	-10.4684
▁両者は本局が初手合い	-10.4687
のうち	-10.4689
もなく	-10.4691
二飛と回	-10.4701
脇謙二八段	-10.4707
と話している	-10.4707
六角までの消費時間は	-10.4711
待ち	-10.4718
八玉までの消費時間は	-10.4721
見える	-10.4725
現局面の	-10.4727
ですし	-10.4734
利かして	-10.4734
が王手飛車取り	-10.4734
AbemaTV	-10.4738
をけん制	-10.4738
どう指すか	-10.474
中村修九段	-10.4743
金矢倉	-10.4743
二飛には	-10.475
が時間を使っている	-10.475
守っている	-10.4756
寄せた	-10.4756
攻め合った	-10.476
の余地	-10.4764
森安正幸七段門下	-10.4769
角の利きを	-10.477
詰めろ逃れの詰めろ	-10.477
飛車の位置	-10.4772
にくくなる	-10.4774
固	-10.4777
二人	-10.4788
攻めるなら	-10.4791
手持ちの	-10.4791
五歩の攻め	-10.4795
閉	-10.4798
席を立った	-10.48
の今期成績は	-10.48
の準備	-10.4801
いないので	-10.4802
構	-10.4802
▁定刻の	-10.4802
どういう	-10.4804
三の銀	-10.4804
信	-10.483
中継室を訪れた	-10.4831
飛車金両取り	-10.4831
長谷部	-10.4831
同士	-10.4832
なければいけない	-10.4833
速度	-10.4834
驚きの声	-10.4835
三同香	-10.4836
手順中	-10.4838
再度の	-10.484
を消しながら	-10.484
確かに	-10.4847
据え	-10.4848
穏やかな	-10.4852
現れ	-10.4853
を作れる	-10.486
NHK	-10.4863
白星	-10.4863
五歩と突いた	-10.4868
耐えている	-10.488
の勝負手	-10.4882
を加え	-10.4883
自然な手	-10.4884
プレッシャーをかけ	-10.4887
声が上がる	-10.4891
ないといけない	-10.4892
拒	-10.4894
潰	-10.4894
幸	-10.4894
ところです	-10.4894
鉄壁	-10.4895
超	-10.4895
を防ぎつつ	-10.4895
崩し	-10.4896
絶対	-10.4896
先着	-10.4907
激戦	-10.4908
最近では	-10.491
▁高野は	-10.4913
後手の攻めを	-10.4913
を牽制する	-10.4916
始め	-10.4919
何も	-10.4925
塞	-10.4926
小林宏	-10.4927
何とか	-10.4936
歩を突いて	-10.494
渡辺明竜王	-10.4943
同金寄	-10.4948
伝	-10.4957
七桂不成	-10.4968
守る	-10.4969
六飛までの消費時間は	-10.497
気合	-10.4976
に当てた	-10.4976
確定	-10.4988
照	-10.4989
ぶつかった	-10.4989
わかりやすい	-10.4989
弟子	-10.499
型のまま	-10.499
にならないように	-10.4992
二金引	-10.4993
角道を開け	-10.4995
後手ペース	-10.4995
西川和六段	-10.5002
五歩と仕掛ける	-10.5011
戻り	-10.5015
掛	-10.5015
改めて	-10.5021
感覚	-10.5022
筋の歩を突き	-10.5033
あって	-10.5034
かもしれませんね	-10.5035
に見えた	-10.5042
角道を止め	-10.5042
据えた	-10.5042
が動いた	-10.5045
もう少し	-10.5048
指していた	-10.5049
囲って	-10.5052
踏み込み	-10.5054
依然として	-10.5055
四角までの消費時間は	-10.507
六飛成	-10.507
はずだ	-10.5077
棋士室には	-10.508
に戻る	-10.5082
もおかしくない	-10.5084
割り打ち	-10.5085
に組んだ	-10.5085
放つ	-10.5087
を守った	-10.5089
分頃の着手	-10.5095
長岡五段	-10.51
顔を	-10.5101
の姿勢	-10.5104
開いた	-10.5106
原	-10.5115
系	-10.5117
あげ	-10.5124
▁浦野は	-10.5133
順を選んだ	-10.5136
角道を開ける	-10.5139
勇気	-10.5158
▁この手に	-10.516
を止める	-10.5177
腹	-10.5182
がっちり	-10.5182
射	-10.5182
小林健二九段門下	-10.5182
進行の一例は	-10.5182
だいぶ	-10.5182
デメリット	-10.5182
が痛打	-10.5182
以下の詰みがある	-10.5184
捕	-10.5192
追った	-10.5194
敵陣	-10.5194
通った	-10.52
構える	-10.5206
▁金を上がって	-10.5206
定め	-10.5206
刻	-10.5212
そこまで	-10.5213
金を上がる	-10.522
を探	-10.5222
最後に	-10.5222
この一手に	-10.5225
捌	-10.5225
叩	-10.5226
が広い	-10.5228
五銀左	-10.5228
▁野月は	-10.5231
出られる	-10.5234
全く	-10.5234
の王手飛車	-10.5235
見せ	-10.5237
一回	-10.5239
ではなかった	-10.5242
高美濃	-10.5243
ギリギリの	-10.5247
指しこなす	-10.5247
最後は	-10.5247
居玉を解消	-10.5249
八成銀	-10.5254
片上六段	-10.5257
を作っている	-10.5259
棋王戦	-10.5259
逃がし	-10.5265
▁宮田は	-10.5265
そうだった	-10.5267
康	-10.5268
いかない	-10.527
になりそうな	-10.5271
香を取った	-10.5271
玉の移動	-10.5278
右桂	-10.5278
の効果で	-10.5283
揺	-10.5288
有効	-10.529
三の地点に	-10.5291
の考慮時間が	-10.5298
後手玉も	-10.5302
と言う	-10.5313
ターン	-10.5315
攻めが切れ	-10.5316
上座	-10.5321
いう	-10.5321
本格的な戦い	-10.5323
天王山	-10.5327
一見	-10.5328
来た	-10.5329
を優先した	-10.5334
歩を突いた	-10.534
手数は	-10.5344
未	-10.5344
といえば	-10.5345
置かれ	-10.5346
が必要だ	-10.5349
王手角取り	-10.5351
呼び	-10.5351
九龍	-10.5352
間に合わ	-10.5352
プレッシャー	-10.5357
先手がよさそう	-10.5362
を止めた	-10.5362
の追撃	-10.5365
飛車を引いて	-10.5372
を用意する	-10.5377
飯塚七段	-10.5378
と言える	-10.5378
脇息に	-10.5378
分を回った	-10.538
自玉は	-10.5384
ート	-10.5388
決めにいった	-10.539
攻めに使う	-10.5391
五歩と突かれ	-10.5399
を決行した	-10.54
低く	-10.5405
四の角	-10.5407
不思議	-10.5411
鈴木大介八段	-10.5411
を強要	-10.5412
有望	-10.5412
七番勝負	-10.5413
指され	-10.5414
同成桂	-10.5414
ジッと	-10.5416
引き場所	-10.542
右金を	-10.5423
どうやって	-10.5429
誘い	-10.5432
が親子丼	-10.5432
取り返した	-10.5433
できている	-10.5437
安	-10.544
止	-10.5441
ニコニコ生放送	-10.5445
際どい	-10.5445
計算	-10.5445
▁この局面で定刻	-10.5448
下段飛車	-10.5448
方向	-10.545
後手は歩切れ	-10.546
▁高崎は	-10.5463
を着手した	-10.5466
を通して	-10.547
以降は	-10.547
先手の勝ち	-10.548
が厳しくなる	-10.5485
横歩	-10.5493
を広げる	-10.5498
▁この局面は	-10.5501
止める	-10.5504
が普通	-10.5508
準	-10.5511
刺し違え	-10.5511
以来	-10.5512
の手は	-10.5514
迫り	-10.5523
プレッシャーをかける	-10.5523
にヒモをつける	-10.5529
序盤戦	-10.553
評判	-10.553
と受けても	-10.5532
勝てば	-10.5545
立ち上がり	-10.5549
先手玉が詰む	-10.555
気づ	-10.5551
争い	-10.5554
～△9	-10.5556
放置して	-10.5559
対局者	-10.5567
深浦九段	-10.557
にぎり	-10.5578
エ	-10.5579
並ぶ	-10.558
よくある	-10.5584
矢倉模様	-10.5585
カバー	-10.5588
向け	-10.5591
築	-10.56
十分に	-10.561
勝負どころ	-10.5616
良	-10.5616
長考に沈んでいる	-10.5623
と引く手	-10.5632
こそ	-10.5637
ねぇ	-10.5643
つもりか	-10.5647
七成桂	-10.5655
こともできる	-10.5655
完	-10.566
乱戦	-10.566
手待ち	-10.5669
を目指し	-10.5672
振	-10.5676
ようとする	-10.5677
掛かり	-10.568
深浦康市九段	-10.568
骨	-10.568
温存し	-10.5681
時間を超えた	-10.5681
次予選	-10.5681
ひもをつけ	-10.5682
望み	-10.5687
指せば	-10.569
二龍	-10.5693
金を上がって	-10.5695
▁塚田は	-10.5699
を目指して	-10.57
と金攻め	-10.5703
を取りにいった	-10.5705
少考	-10.5706
中村修	-10.5712
変わった	-10.5714
指したい手	-10.5716
タイトル	-10.5719
にはならない	-10.572
敵	-10.5722
うな	-10.5732
駒の損得は	-10.5734
▁豊川は	-10.5735
見送	-10.5736
ことはできない	-10.5742
の姿	-10.5745
を放置して	-10.5746
私は	-10.5751
はあります	-10.5753
に掛かる	-10.5754
きり	-10.5754
その前に	-10.5759
が利かない	-10.5761
飛車を取って	-10.5774
利かせて	-10.5776
されたときに	-10.5777
方が難しい	-10.578
手筋だ	-10.5781
阿部隆	-10.5782
ボ	-10.5783
自由	-10.5784
も検討されていた	-10.5784
打ち込み	-10.5789
先手が指せる	-10.579
ター	-10.5795
学	-10.5818
持ち時間は各	-10.5818
誘導	-10.5818
求め	-10.5834
取らず	-10.5837
この歩を	-10.5841
ていました	-10.5842
読	-10.5842
かといって	-10.5843
懐	-10.5847
部分的に	-10.5848
止まって	-10.5852
▁棋士番号	-10.5852
あえて	-10.5852
八金引	-10.5854
無難	-10.5854
を生かし	-10.5867
を保留し	-10.5868
中盤戦	-10.587
飛車をいじめ	-10.5877
ヒ	-10.5886
自分の	-10.5887
が実現すれば	-10.5887
金を取って	-10.589
角筋を通し	-10.5901
筋突破	-10.592
のではないでしょうか	-10.5922
一手一手の寄り	-10.5923
五飛成	-10.5923
までの残り時間は	-10.5924
七の地点に	-10.593
確実	-10.5941
後手の飛車が	-10.5947
総	-10.5957
聞き手	-10.5957
遊んでいる	-10.5957
反動	-10.5958
分以上考えて	-10.596
落とし	-10.5966
いじめ	-10.5967
反撃する	-10.5974
角道を止めて	-10.5977
結局	-10.5977
示した	-10.5985
途	-10.5988
三歩までの消費時間は	-10.5989
武	-10.5991
久	-10.5991
豊島将之	-10.5992
戦果	-10.5997
引き付け	-10.5998
みたいです	-10.6
時点で	-10.6002
中央から	-10.6011
そんな	-10.6027
渡した	-10.6029
つまり	-10.6032
を入れて	-10.6033
駒音	-10.6036
棋聖	-10.6036
の長考で	-10.604
の一戦	-10.6047
詰めろにならない	-10.6048
垂	-10.6052
前後	-10.6056
容易	-10.6058
上記	-10.6061
さばかれ	-10.6062
検討が進み	-10.6064
しかなさそうだ	-10.6066
突き捨てた	-10.607
ておきたい	-10.6071
分に対局再開	-10.6072
三成銀	-10.6074
もあるので	-10.6076
集め	-10.6078
▁飯塚は	-10.6082
厚	-10.6085
受かって	-10.6089
圧迫	-10.609
歩打ち	-10.6093
白	-10.6097
穴	-10.6098
時代	-10.6102
突き越す	-10.6103
七銀戦法	-10.6108
のぶつけ	-10.6109
後手がいい	-10.611
とすると	-10.6113
先手の動き	-10.6118
▁中川は	-10.6119
馬を作って	-10.6119
穴熊に組む	-10.612
後手の攻め駒	-10.6121
挟	-10.6133
費やし	-10.6136
平成	-10.6139
一銀不成	-10.6141
(0.4	-10.6145
つもりのようだ	-10.6145
違	-10.6146
で後手よし	-10.6146
一枚	-10.615
七同角	-10.6154
根	-10.6168
陽	-10.6169
を図った	-10.6169
黒田	-10.6169
突かせ	-10.6171
分の長考の末	-10.6171
優勝	-10.6182
ければ	-10.6183
井上九段	-10.6187
▁中座は	-10.6189
▁脇は	-10.619
七銀型	-10.6192
を見ると	-10.6195
交換を迫る	-10.6197
しようとしている	-10.6197
七同香	-10.6198
志	-10.6204
四銀打	-10.6204
手元のデータベース	-10.6205
e	-10.6205
を見つめ	-10.6205
まとま	-10.6206
九同玉	-10.621
に働きかける	-10.621
増えて	-10.6211
考え続けている	-10.6214
によると	-10.6214
働いている	-10.6219
を得意とする	-10.6224
を示し	-10.6226
ぁ	-10.6227
と打てる	-10.623
引き締め	-10.6231
飛車を捕獲	-10.6234
過	-10.6239
銀を活用	-10.6243
進められ	-10.6251
置いたまま	-10.6254
ぴったり	-10.6257
▁金井は	-10.6262
常	-10.6267
飛車を回った	-10.6269
玉頭攻め	-10.6269
銀得	-10.627
明日	-10.6275
投資	-10.6277
呼吸	-10.6277
強襲	-10.6284
に手をつけた	-10.6284
歩を入手	-10.6291
駒の損得	-10.6292
利かせる	-10.6292
感想戦では	-10.631
追い払う	-10.6313
誠	-10.6313
自玉に	-10.6315
聞かれ	-10.6316
組み立て	-10.6318
時折	-10.632
がうるさい	-10.6321
王手を掛け	-10.6322
重く	-10.6323
の使い方	-10.633
▁横山は	-10.6333
若	-10.6335
が入っている	-10.6339
と進むと	-10.6348
最終盤	-10.6348
も同じ	-10.6349
長沼洋七段	-10.6349
力をためる	-10.635
指せそう	-10.6356
熱戦	-10.636
この手を見て	-10.6361
筋の攻め	-10.6363
であること	-10.6363
ぶり	-10.637
歩を成った	-10.6377
来る	-10.6378
をつけて	-10.6384
張り	-10.6384
及	-10.6386
棋譜用紙	-10.6386
浩	-10.6386
■	-10.6386
マイナス	-10.6386
ともになし	-10.6395
立て直す	-10.6397
糸谷六段	-10.6398
好み	-10.6404
よくなる	-10.641
待望の	-10.6414
ておけば	-10.6415
歩のたたき	-10.6416
覚	-10.6421
休	-10.6423
飛車銀両取り	-10.6423
対処	-10.6423
武市	-10.6423
当初	-10.6425
筋に歩が	-10.6434
わない	-10.6435
引っ	-10.6436
次の一手	-10.6437
▁千葉は	-10.6446
可能性も	-10.645
?」(	-10.6454
分岐点	-10.6459
耐久力	-10.6459
言葉	-10.646
を求める	-10.6462
▁島本は	-10.647
歩を突く	-10.6472
も有力だった	-10.6476
らせて	-10.6481
角を引く	-10.6485
日目の	-10.6492
この手も	-10.6493
なんとも	-10.6494
銀冠を目指す	-10.6494
長考の末	-10.6495
削	-10.6496
筋の突き合い	-10.6496
木村一基八段	-10.6497
入って	-10.6499
端の位	-10.6501
後手玉に迫る	-10.6504
予想通り	-10.653
が自然だが	-10.6532
周	-10.6532
本線	-10.6533
一玉型	-10.6533
歓迎	-10.6533
返して	-10.6537
筋の端歩	-10.6537
置き	-10.6538
得意とする	-10.6538
の感想	-10.654
候補	-10.6543
ゃ	-10.6544
香車を	-10.6545
のは大変	-10.655
という意味	-10.6553
三銀不成	-10.6554
しのげ	-10.6562
しのぐ	-10.6571
おいてから	-10.6577
戦線	-10.6584
焦点の歩	-10.6589
二金上	-10.6591
筋が生じる	-10.6605
なくても	-10.6605
ェ	-10.6608
攻守	-10.6608
角を打ち	-10.6612
粘り強い	-10.6614
出身	-10.6616
待つ	-10.662
田村七段	-10.6625
大変な	-10.6626
決まっている	-10.6626
力をためた	-10.6627
難しいです	-10.6627
決勝	-10.6629
落	-10.6633
玉の位置	-10.6641
に比べて	-10.6645
突進	-10.6646
後続	-10.6651
いい勝負	-10.6658
先崎八段	-10.6665
この桂	-10.6668
分あまり考え	-10.6668
読みだろう	-10.6676
の王手飛車取り	-10.6677
悔	-10.6682
徐々に	-10.6683
を変える	-10.6683
中田宏八段	-10.6685
角筋を	-10.6686
まずまず	-10.6687
を許して	-10.6697
筋を突破	-10.6698
この手を見た	-10.6698
ひと目	-10.6698
跳ねて	-10.6709
狙いだろうか	-10.6709
過去	-10.6716
治	-10.6721
俗	-10.6721
露骨に	-10.6721
座布団	-10.6721
阻	-10.6721
角換わり腰掛け銀	-10.6723
突いた	-10.6723
阿部隆八段	-10.6723
変調	-10.6725
を外す	-10.6729
やりにくい	-10.6731
に組んで	-10.6734
控え室に	-10.6738
村田智六段	-10.674
▁飯島は	-10.6742
刺さ	-10.675
歩を払った	-10.6759
懸念	-10.6759
制限	-10.676
と見れば	-10.676
示	-10.6762
抑え	-10.6765
一金打	-10.6766
打ちたい	-10.6774
考えてみたい	-10.6778
戻して	-10.6779
歩の垂らし	-10.6794
弁当	-10.6796
休憩を挟んで	-10.6796
背	-10.6796
予選	-10.6796
苦しそう	-10.6798
三銀型	-10.6799
筋の位を取った	-10.6802
活用した	-10.6806
▁内藤は	-10.681
七銀不成	-10.6815
を挙げた	-10.6817
と進めて	-10.6825
拡大	-10.6835
駒台の	-10.6835
二成香	-10.6845
▁片上は	-10.6856
対局室へ	-10.686
それほど	-10.6864
満	-10.6871
飛車を逃げた	-10.6872
弱体化	-10.6873
眺	-10.6873
を調べている	-10.6873
詰んでしまう	-10.6874
元気	-10.6901
注	-10.6904
後手勝勢	-10.6905
継	-10.6908
松	-10.691
筋方面	-10.6911
付いて	-10.6918
お茶を	-10.6919
左銀	-10.6919
を用意して	-10.6923
べきだった	-10.6923
▁戦型は角換わり	-10.6929
ギ	-10.695
練習将棋	-10.695
昼食休憩を挟む	-10.695
おとなしく	-10.695
金無双	-10.695
継ぎ歩攻め	-10.6951
かえって	-10.6959
七成銀	-10.6959
術	-10.6966
取るしかない	-10.6966
強手	-10.6974
利かせ	-10.6979
先手玉は詰まない	-10.6982
銀を出た	-10.6985
巧	-10.6989
獲得	-10.6989
昼食休憩を挟んで	-10.6989
並んだ	-10.699
言えば	-10.6992
の利きを止める	-10.6994
番勝負	-10.6999
王座	-10.7006
堀口一	-10.7008
大長考	-10.7013
角のにらみ	-10.7017
勇	-10.7017
後手が指せる	-10.7019
加藤九段	-10.7021
順もある	-10.7021
同一	-10.7022
糸谷哲郎	-10.7025
ペットボトル	-10.7028
手裏剣	-10.7028
絞	-10.7028
差がついている	-10.7028
あっさり	-10.7028
遠ざけ	-10.7028
をいじめる	-10.7028
飛車角交換	-10.7028
継続	-10.7028
変更	-10.7028
船江五段	-10.7039
角上がり	-10.7044
▁藤原は	-10.7046
したいところ	-10.7052
手目の局面	-10.706
現れた	-10.7062
修	-10.7062
森内俊之	-10.7067
無し	-10.7068
スト	-10.7073
という感じ	-10.7081
を助ける	-10.7082
同じように	-10.7086
を手抜いて	-10.709
と受ければ	-10.7096
と金を作る	-10.7097
並	-10.71
テ	-10.7106
密	-10.7106
コース	-10.7106
師匠	-10.7106
弘	-10.7106
唯一の	-10.7107
攻撃態勢	-10.7107
後手の勝ち	-10.7108
両者ともになし	-10.711
六同香	-10.7111
よく見られる	-10.7117
青野流	-10.7119
これなら	-10.7119
順位戦では第	-10.7119
席を外した	-10.7134
が楽しみだ	-10.714
攻撃陣	-10.714
桂を打つ	-10.7141
指す手が	-10.7142
谷	-10.7145
千葉幸生六段	-10.7145
相性	-10.7147
降り	-10.7149
九金打	-10.7151
強い戦い	-10.7157
五銀と出る	-10.7157
不安定な	-10.7169
細い	-10.7174
をにらんでいる	-10.7179
健	-10.718
三同角	-10.7181
吸	-10.7184
カレーライス	-10.7185
五角の王手飛車	-10.7187
ことだろう	-10.7194
にヒモをつけて	-10.7196
一例	-10.7196
跳ねた	-10.7203
▁村中は	-10.7205
指し方もある	-10.7214
向かい	-10.7224
頑	-10.7224
下ろす	-10.7225
中田宏	-10.7225
取り返し	-10.7226
指されており	-10.7229
視線を	-10.7232
先手玉に迫る	-10.7233
一人	-10.7236
結	-10.724
歩を取って	-10.7252
生き	-10.7253
駒組みを進め	-10.7253
そのあと	-10.7255
有名	-10.7261
員	-10.7264
変わり	-10.7264
+	-10.7264
遠山雄亮五段	-10.7264
と話していた	-10.7265
しばし	-10.7265
▁対局再開から	-10.7272
危険な	-10.7274
難しいところ	-10.7275
グラス	-10.7275
押さえ込む	-10.728
こちらから	-10.7281
指し手が早い	-10.7281
二金型	-10.7284
▁北島は	-10.7285
鋭	-10.7286
迫った	-10.7289
嫌みをつけ	-10.7289
外れ	-10.729
銀損	-10.7299
練	-10.7304
ハッキリ	-10.7304
也	-10.7304
次の狙いは	-10.7312
一香成	-10.7316
も考えられます	-10.7319
▁真田は	-10.7326
まっている	-10.7329
▁島は	-10.7329
急戦矢倉	-10.733
構えだ	-10.7333
定刻	-10.734
去	-10.7344
手放し	-10.7344
平藤眞吾七段	-10.7345
跳ねる	-10.7345
昼食	-10.7348
がまさった	-10.735
面倒を見る	-10.7352
銀を取って	-10.7353
昼食の注文は	-10.7354
四同香	-10.7356
おらず	-10.7358
五同歩までの消費時間は	-10.737
示していた	-10.7371
現局面まで	-10.7373
何でも	-10.7377
類	-10.7381
三へ	-10.7383
花	-10.7385
飯島栄治七段	-10.7385
わかりません	-10.7385
トップ	-10.7385
に持ち込め	-10.7385
に進みそうだ	-10.7386
うまくいかない	-10.7387
先手玉への	-10.7392
引き揚げ	-10.7392
前例では	-10.7395
突き捨てる	-10.7396
られそうだ	-10.7404
▁神崎は	-10.7404
引き飛車	-10.7411
穴熊を目指した	-10.7412
時ころの局面	-10.7415
穴熊へ	-10.7416
六銀打	-10.7421
いつの間にか	-10.7425
それにしても	-10.7426
捨てた	-10.744
やがて	-10.7443
駒を補充	-10.7449
を乱す	-10.7451
三段目に	-10.7454
王手飛車取り	-10.7455
に加え	-10.7461
挑戦者	-10.7466
デビュー	-10.7466
袖	-10.7466
を迎えている	-10.7467
なりました	-10.7479
高く	-10.7488
角を追う	-10.749
川上六段	-10.7492
さすが	-10.7499
ように見えます	-10.7501
対局室に入ると	-10.7505
能	-10.7507
谷川浩司九段	-10.7507
範囲	-10.7507
ひねり出	-10.7507
度目の	-10.7508
▁※=	-10.7516
捕まえ	-10.752
王手をかけ	-10.7523
銀引き	-10.7526
展開になれば	-10.7529
座り	-10.7532
銀を打つ	-10.7536
違って	-10.7545
効率	-10.7547
城	-10.7547
紫金飯店	-10.7548
バラバラ	-10.7548
華	-10.7548
仕掛けていった	-10.7548
岐	-10.7548
佐藤天彦	-10.7548
不利	-10.7551
早速	-10.7551
指しづらい	-10.7558
▁戦型は横歩取り	-10.7559
然と	-10.7563
▁遠山は	-10.7571
筋を受ける	-10.7574
折	-10.7581
評	-10.7588
万	-10.7588
自陣飛車	-10.7589
赤だし	-10.7589
凌	-10.7589
執	-10.7589
着々と	-10.7589
玉を固める	-10.7594
谷川九段	-10.7594
馬を作り	-10.7602
という評判	-10.7604
遅	-10.7608
きそうな	-10.7609
そこから	-10.7614
揺さぶり	-10.763
省	-10.763
セオリー	-10.763
秘	-10.763
の手が止まっている	-10.7632
決着	-10.7634
見られ	-10.7638
突き捨てて	-10.7644
飛車を振る	-10.7649
という見解	-10.7649
理想形	-10.7661
筋を攻める	-10.7663
に備えている	-10.7668
紙	-10.7672
たくさん	-10.7672
対局が再開し	-10.7672
置いた	-10.7673
飛車先の歩交換	-10.7673
に終了した	-10.7678
筋の歩を突いて	-10.768
九銀不成	-10.768
始めている	-10.7685
速い攻め	-10.7688
晴れ	-10.769
▁富岡は	-10.7692
と見ていた	-10.77
香を取って	-10.7702
を見せられ	-10.771
冷静な	-10.7712
協	-10.7713
仕方ない	-10.7713
複雑	-10.7714
頑張り	-10.7714
(0.6	-10.7714
の手が動いた	-10.7718
飛ばし	-10.7723
三銀引	-10.7725
ピッタリ	-10.773
を緩和する	-10.7731
先手十分	-10.7739
歩を垂らす	-10.7739
二銀型	-10.7741
率	-10.7746
を迎えた	-10.7748
セ	-10.7755
説	-10.7755
常套手段	-10.7755
むしろ	-10.7755
要領	-10.7756
結構	-10.7756
回目	-10.7756
確実な攻め	-10.7756
金寄り	-10.7758
守りを固め	-10.7758
意図	-10.7758
味をつけ	-10.7759
七金寄	-10.7761
が考えられます	-10.7762
迎え	-10.7767
んですよ	-10.7768
▁青野は	-10.7778
玉を移動	-10.778
に狙いをつける	-10.7786
数手前	-10.7787
受からない	-10.779
怖く	-10.7791
一の金	-10.7792
おお	-10.7792
接	-10.7794
六の角	-10.7797
強烈な	-10.7797
HP	-10.7797
駄目	-10.78
新しい	-10.7801
弱く	-10.7803
替	-10.7809
はがす	-10.7814
んでいた	-10.782
そうとしている	-10.783
金を打って	-10.7832
教	-10.7839
さばいた	-10.784
が狙える	-10.784
端を詰め	-10.7842
ぶつけていく	-10.7853
手が広い	-10.7856
大事	-10.7859
が消えて	-10.7865
その間に	-10.7869
組む	-10.7872
激しい展開	-10.7877
玉を入城	-10.7879
様	-10.788
角を切って	-10.788
青	-10.7881
ヤ	-10.7881
対局が再開された	-10.7881
眼	-10.7882
独	-10.7882
仕草	-10.7882
といえそうだ	-10.7882
具体的な	-10.7882
終わり	-10.7882
井上慶太九段	-10.7882
突かず	-10.7883
突かない	-10.7883
の手が止まった	-10.7884
王手馬取り	-10.7884
先手のほうが	-10.7895
▁堀口は	-10.7902
歩を受けた	-10.7903
先手が優勢	-10.7903
を気にし	-10.7904
してどうか	-10.7917
しまって	-10.7917
三金打	-10.7921
効	-10.7924
を果たした	-10.7924
髪	-10.7924
席を立つ	-10.7924
オーソドックスな	-10.7928
受けに回った	-10.7928
普通の	-10.7929
五同歩と応じた	-10.7932
込んでいる	-10.7932
よくなった	-10.7932
必要はない	-10.7933
いけない	-10.7935
示された	-10.794
五桂と跳ねて	-10.7941
▁神谷は	-10.7947
攻め合いに出た	-10.7954
闘	-10.7967
やっぱり	-10.7967
稲葉陽八段	-10.7967
の本年度の成績は	-10.7967
んですよね	-10.7968
金を打った	-10.7969
二の地点	-10.7969
に当てながら	-10.7969
惜し	-10.797
置く	-10.797
囲え	-10.798
取り返せる	-10.7986
一転して	-10.801
直前に	-10.8016
本田	-10.8018
簡単	-10.8027
似	-10.803
使えない	-10.8033
歩成り	-10.8043
銀を出る	-10.8045
番手	-10.8048
歩を取らずに	-10.8048
突き越した	-10.8048
配	-10.805
取り込んで	-10.8052
軍	-10.8053
つかない	-10.8053
まもなく	-10.8058
そういう	-10.8058
駒の働き	-10.8066
馬作り	-10.8066
そのうち	-10.8071
見えます	-10.8071
取れれば	-10.8071
作戦負け	-10.8073
三金寄	-10.8075
取れた	-10.8085
桂を入手	-10.8095
共	-10.8096
ぱ	-10.8096
ョ	-10.8096
ことに成功した	-10.8097
突っかけた	-10.8097
鬼	-10.8097
席を外す	-10.8098
しびれ	-10.8102
交換になれば	-10.8111
模様の出だし	-10.8112
不安定	-10.812
横歩を取った	-10.8127
親	-10.814
意識	-10.814
ともいえる	-10.8141
を掛ける	-10.8142
にくかった	-10.8144
利いてくる	-10.8145
印象です	-10.8148
飛車を追う	-10.8149
振る	-10.8149
一角の筋	-10.815
野月七段	-10.8157
を投入して	-10.8162
屋敷九段	-10.8164
得をしている	-10.8167
ありそうだ	-10.8168
越	-10.817
将棋になった	-10.8174
歩が伸び	-10.8175
土	-10.8183
疑問	-10.8184
限定	-10.8186
指したい	-10.8186
冷やし	-10.8186
自信がなかった	-10.8187
局ある	-10.819
馬を作った	-10.8196
筋の位を取る	-10.8198
乗り	-10.8207
警戒	-10.8207
冠	-10.8209
答え	-10.821
村	-10.8214
の選択は	-10.8215
を支えた	-10.822
田楽刺し	-10.8228
踏み込んで	-10.8229
が行われている	-10.823
が可能になった	-10.823
玉の懐を広げ	-10.8234
二の銀	-10.8241
と寄って	-10.8242
をなくし	-10.8243
先手を取る	-10.8254
敗れている	-10.8255
浮いた	-10.8255
詰んで	-10.8256
全体	-10.8257
玉を寄った	-10.826
揺れ	-10.826
欲	-10.8271
狙いもある	-10.8272
ペ	-10.8272
に向かった	-10.8273
仕事	-10.8273
回避	-10.8275
早々に	-10.828
力戦形	-10.8282
ろうとしている	-10.8297
角の働き	-10.8301
反発する	-10.831
さばけた	-10.831
延	-10.8316
永瀬拓矢	-10.8316
と比べると	-10.8316
軸	-10.8316
僕	-10.8316
混	-10.8316
助け	-10.8334
▁長岡は	-10.8339
まれる	-10.8341
防ぐ	-10.8342
行方八段	-10.8347
と合わせて	-10.8347
角成り	-10.8348
西川和宏六段	-10.836
スムーズに	-10.836
覆	-10.836
アヤ	-10.8361
先手が勝ちそう	-10.8363
飛び出す	-10.8363
得をした	-10.8368
棋士室でも	-10.8369
七銀引	-10.837
ようです	-10.8375
こともあり	-10.8379
出された	-10.8386
姿勢だ	-10.8402
働かせる	-10.8402
維持	-10.8402
福	-10.8404
ゲ	-10.8405
対決	-10.8409
迫れる	-10.841
作戦勝ち	-10.841
いられない	-10.8411
金を引いて	-10.8412
佐藤康九段	-10.8415
からの継続手	-10.842
なってしまった	-10.8431
対局室に戻って	-10.8436
を取られても	-10.8442
泰	-10.845
邪魔	-10.845
検討されていなかった	-10.845
この戦型	-10.8451
三角戦法	-10.8452
悪形	-10.8454
と引かれて	-10.8469
取り合う	-10.847
交換を拒否	-10.847
挙	-10.8482
熱	-10.8482
香を補充	-10.8488
打開する	-10.8489
広さ	-10.8491
ム	-10.8491
検討され	-10.8491
述べ	-10.8492
局後の	-10.8493
則	-10.8495
ガッチリ	-10.8495
引っ張り	-10.8495
こんな	-10.8495
に決まった	-10.8524
を狙われて	-10.8525
存	-10.8539
弟	-10.8539
スーツ	-10.854
今泉健司四段	-10.854
山崎隆之八段	-10.854
捕まらない	-10.854
ことに満足し	-10.8541
が続きそうだ	-10.8542
一致	-10.8542
指し進めている	-10.8544
を作りにいく	-10.8544
段階	-10.8555
始まり	-10.8556
先手中飛車	-10.8564
振り飛車側	-10.8565
を受けながら	-10.8566
明快な	-10.857
据える	-10.8576
取り込ま	-10.8579
佐々木慎六段	-10.8585
いわゆる	-10.8586
夏	-10.8586
を告げ	-10.8586
部屋	-10.8586
ケア	-10.8586
全然	-10.8586
られれば	-10.8589
片上五段	-10.859
まさる	-10.8591
山崎七段	-10.8594
を作らせ	-10.8603
合っている	-10.8604
ですからね	-10.8604
飛車回り	-10.8612
採	-10.863
一時的に	-10.8632
いけません	-10.8632
角の打ち込み	-10.8633
当たっている	-10.8636
七へ	-10.8636
対抗する	-10.8641
調べられてい	-10.8648
▁石川は	-10.8651
九の金	-10.8659
かねない	-10.866
をつけた	-10.8675
択	-10.8677
敵の打ちたいところに打て	-10.8677
何度も	-10.8677
黙って	-10.8679
飛車を逃げずに	-10.8683
したがって	-10.8685
姿を見せ	-10.8686
よく指されている	-10.8686
▁田村は	-10.8696
攻めが続きそうだ	-10.8696
まで進むと	-10.8704
香交換	-10.871
の利きを通	-10.8711
引きつける	-10.8717
同銀不成	-10.872
三浦弘行九段	-10.8723
が助からない	-10.8723
平凡に	-10.8723
待機	-10.8724
を消しつつ	-10.8728
押さえ込まれ	-10.8732
▁日浦は	-10.8743
▁森は	-10.8744
完全に	-10.8746
を持った	-10.8747
抜き	-10.8754
やれそう	-10.8756
分の考慮で指された	-10.8757
うるさい	-10.8759
タイトル戦	-10.8762
活用できる	-10.8765
阪口悟五段	-10.8769
迎え撃つ	-10.8769
おやつ	-10.8769
設置した	-10.8777
のではないかと言われている	-10.878
駒組みを進めている	-10.8783
金銀両取り	-10.8784
つらそう	-10.8789
を得た	-10.8795
生まれ	-10.8808
三の桂	-10.8811
更	-10.8815
鳩	-10.8816
カツ丼	-10.8816
舞	-10.8816
前線に	-10.8816
間もなく	-10.8818
自陣に手を入れ	-10.8819
ーム	-10.882
端歩を突いた	-10.8821
手が進む	-10.883
決めに出た	-10.8831
質	-10.8832
と呼ばれる形	-10.8851
起	-10.886
ャ	-10.8861
震	-10.8863
に近づく	-10.8863
最高気温は	-10.8863
試	-10.8863
は許せない	-10.8864
ことも可能	-10.8866
宏	-10.8904
門	-10.8907
逃げられて	-10.8908
帯	-10.891
ぶつかって	-10.8911
攻めをつなげる	-10.8912
今月	-10.8929
が消えた	-10.8931
うち	-10.8933
激しい攻め合い	-10.8946
じっくりとした	-10.8947
勝負に出た	-10.8952
初戦	-10.8952
を牽制した	-10.8953
送り	-10.8955
屈	-10.8957
が使った時間は	-10.8957
伸ばされ	-10.8957
と話した	-10.8958
復活	-10.8958
現時点で	-10.8958
時に対局開始	-10.8959
を守って	-10.8962
八龍	-10.8969
同型	-10.897
抜	-10.897
を狙っていく	-10.8972
受けが利かない	-10.899
を取りに行く	-10.8991
傷	-10.9004
に比べると	-10.9004
誰	-10.9004
引かれる	-10.9004
が決まった	-10.9004
巻き	-10.9007
たたいた	-10.9007
候補に挙が	-10.9008
見たこと	-10.901
が一例です	-10.9017
しなければならない	-10.902
持ち時間を使いきった	-10.902
来訪	-10.9027
仕掛けていく	-10.9028
羽生名人	-10.9035
藤	-10.9047
ケ	-10.9051
デ	-10.9051
還	-10.9052
ホ	-10.9052
ソ	-10.9052
捕まる	-10.9053
選べ	-10.9053
金を寄った	-10.9054
午前中	-10.9055
およそ	-10.9057
後手玉への	-10.9058
と寄った	-10.906
叩く	-10.9061
▁及川は	-10.9073
歩を使って	-10.9074
続	-10.9077
点数	-10.9077
焼	-10.9092
がありますね	-10.9096
義	-10.91
やってこい	-10.91
宮田利男七段門下	-10.91
決行	-10.9101
を見越して	-10.9103
容易ではない	-10.9105
間違い	-10.9106
を牽制	-10.9109
井	-10.9117
が完成した	-10.9117
んでしょうね	-10.9119
をとがめる	-10.912
補強	-10.9122
▁西尾は	-10.9126
歩を打ち	-10.9127
五歩と仕掛けた	-10.9133
が浮いている	-10.9136
脱	-10.9146
論	-10.9147
式	-10.9148
登場	-10.9148
圧力をかけ	-10.9148
根性	-10.9148
を見せながら	-10.9161
戸辺六段	-10.9164
飛車のコビン	-10.9166
寄っている	-10.917
意外な	-10.9172
流行している	-10.9178
をカバーし	-10.9182
補	-10.9194
斬	-10.9196
すんなり	-10.9196
両者の対戦は	-10.9197
を取り払った	-10.9197
真部	-10.92
筋を突き捨てて	-10.9204
然	-10.9207
▁大平は	-10.9214
と見る	-10.9217
詰まず	-10.9222
分近く考えている	-10.9232
立て直し	-10.9234
田中寅	-10.9235
純	-10.9243
参	-10.9244
菅井竜也	-10.9245
a	-10.9245
と進んでいる	-10.9246
を作れ	-10.9246
悔しい	-10.9246
四へ	-10.9246
が始まる	-10.925
印象を受ける	-10.925
長い戦い	-10.9253
を掛けた	-10.9258
桂を取りにいく	-10.9264
端歩を突く	-10.9276
向き	-10.9277
戦いが起こ	-10.9278
しておけば	-10.9291
丸	-10.9292
藤井猛九段	-10.9293
伸びて	-10.9295
数を足	-10.9304
強気な	-10.9317
気になるところ	-10.9329
後手玉は詰まない	-10.9332
午前	-10.9341
中央を厚く	-10.9341
納	-10.9342
といわれる	-10.9342
おかしい	-10.9342
欠	-10.9342
▁終了時刻は	-10.9342
予報	-10.9343
大決戦	-10.9357
決まって	-10.937
位を取った	-10.938
今後の	-10.9383
岡	-10.9389
を入れずに	-10.9394
一連の	-10.9396
迫っていく	-10.9398
定跡形	-10.94
※※	-10.94
薄くなる	-10.9401
読んでいた	-10.9403
場面	-10.9408
前例を離れた	-10.9411
苦戦	-10.9415
なんとか	-10.9422
と受けるのは	-10.9426
糸谷五段	-10.9437
程	-10.944
階	-10.944
宮本広志五段	-10.9441
布陣	-10.9441
著	-10.9441
八の角	-10.9443
急戦策	-10.9449
悪くなる	-10.9452
限り	-10.9456
と出れば	-10.9458
辺り	-10.9461
局のみ	-10.9462
戦術	-10.9471
竜の利き	-10.9471
筋の端攻め	-10.9482
かどうかの勝負	-10.949
つまらない	-10.9491
トン死	-10.9491
軽視し	-10.9492
辛い	-10.9503
のちに	-10.9506
に狙いをつけた	-10.9511
考え方	-10.952
捕まえる	-10.9525
狙う	-10.9541
煮	-10.9541
景	-10.9541
辞	-10.9541
▁両者の対戦成績は	-10.9541
ダイレクト向かい飛車	-10.9541
土台	-10.9541
を重視した	-10.955
面もある	-10.9559
慣れ	-10.9559
角交換を拒否	-10.9568
を制し	-10.9576
香車	-10.9578
悠	-10.9587
ゆったりと	-10.9591
ふたり	-10.9591
歩切れなので	-10.9594
移動させる	-10.9595
玉側の	-10.9601
対戦成績は	-10.9601
八成香	-10.9601
八の銀	-10.9607
親子丼	-10.9609
歩を垂らして	-10.961
一方的に	-10.9614
控室の検討	-10.9615
を含みにしている	-10.9616
に手を当て	-10.9633
呼び込んで	-10.9633
果	-10.9634
に向かって	-10.9639
美	-10.9641
調べてみると	-10.9642
飯塚祐紀七段	-10.9642
足早に	-10.9642
長期戦	-10.9642
藤井聡	-10.9642
によれば	-10.9642
BS	-10.9643
心強い	-10.9648
イン	-10.9656
一段飛車	-10.9658
替え	-10.966
飛車先の歩	-10.9675
が通る	-10.9676
観	-10.9679
攻撃力	-10.9692
量	-10.9692
タタキ	-10.9692
が激痛	-10.9692
を予想している	-10.9694
読んだ	-10.9695
いくつか	-10.9704
を受けつつ	-10.9707
金の両取り	-10.9711
飛車を浮いた	-10.9713
飛車浮き	-10.9714
七の桂	-10.9717
コビン攻め	-10.973
三の角	-10.9732
洋	-10.9743
談	-10.9743
銀冠への組み替え	-10.9743
をうかがう	-10.9743
適	-10.9743
安泰	-10.9744
気持ちのいい	-10.9744
てもおかしくない	-10.9745
八の地点	-10.9745
込	-10.975
五銀と出られ	-10.9755
壁銀を解消	-10.9757
決断の一手	-10.9758
走って	-10.9759
九香成	-10.9759
神崎八段	-10.9765
▁泉は	-10.9769
そうな局面	-10.9773
駒を渡す	-10.9783
効果的	-10.9785
週	-10.9795
誤	-10.9795
が見えてきた	-10.9797
食いつく	-10.9798
との判断	-10.9798
どれだけ	-10.98
攻めに参加	-10.98
迫られ	-10.9803
を牽制している	-10.9804
穴熊が完成	-10.981
捕獲できる	-10.9815
伸ばしていく	-10.9846
電	-10.9846
鳴	-10.9846
高橋道雄九段	-10.9846
→	-10.9846
重要な	-10.9846
価値が高い	-10.9846
をはさんで	-10.9846
Co	-10.9846
振り直す	-10.9848
広瀬章人八段	-10.9848
片美濃囲い	-10.9852
席を外している	-10.9855
右桂を活用	-10.9858
から遠ざかる	-10.9859
送	-10.9866
飛車先の歩を交換	-10.9873
角銀交換	-10.9875
盛り上げ	-10.9878
敵玉	-10.9885
怖い形	-10.9889
結論が出	-10.9895
雑	-10.9898
やぐら	-10.9898
行方尚史八段	-10.9898
オープン	-10.9898
どんな	-10.9898
頓死	-10.9898
ポン	-10.9905
助	-10.9909
形を乱す	-10.9918
がありました	-10.9921
腰掛け	-10.9927
と受ける手	-10.994
足す	-10.9941
箱	-10.995
最後まで	-10.995
封鎖	-10.995
調子がいい	-10.9953
調べられた	-10.9955
二枚換え	-10.9961
大きな一手	-10.9963
晴	-10.9979
有力視され	-10.9987
を狙いたい	-10.9988
滑	-11.0002
若干	-11.0002
紀	-11.0002
為	-11.0003
祐	-11.0003
様子を見る	-11.0006
働かせ	-11.0007
一礼	-11.0007
攻めの継続	-11.0018
付く	-11.0019
を与えない	-11.0019
を安定させ	-11.0026
魅力	-11.005
飯	-11.0053
歴	-11.0055
御	-11.0055
さばかせ	-11.0055
害	-11.0055
本当に	-11.0055
における	-11.0055
強引に	-11.0056
呼び込む	-11.0057
右桂の活用	-11.0065
機を見て	-11.0065
分使っての着手	-11.0066
渡さない	-11.0069
今年度	-11.0082
指し手が難しい	-11.0097
引いておく	-11.0098
加藤一二三九段	-11.0108
ケース	-11.0108
を甘受	-11.0108
間違え	-11.0108
担当	-11.0108
防衛	-11.0108
注意が必要だ	-11.0109
森内名人	-11.0119
見解を示した	-11.0148
それだけ	-11.0151
攻めをつなげ	-11.016
鏡	-11.0161
単純に	-11.0161
創	-11.0161
が濃厚	-11.0161
森下システム	-11.0161
非常手段	-11.0161
味のよい	-11.0163
打ち込まれる	-11.0163
先手が良さそう	-11.0164
待	-11.0185
横歩を取る	-11.0192
が回れば	-11.0193
浮き	-11.02
つなげ	-11.0214
故	-11.0215
今度こそ	-11.0215
具	-11.0215
じわじわと	-11.0215
終わる	-11.0215
厳	-11.0219
対局室に入った	-11.0222
下座	-11.0222
位を取る	-11.023
昼食休憩となった	-11.0234
になっており	-11.0238
襲	-11.0266
を取り払う	-11.0266
カメラ	-11.0268
ぎりぎり	-11.0268
区	-11.0268
さっぱり	-11.0269
膝	-11.0269
発想	-11.0271
▁星野は	-11.028
時間を使わ	-11.0291
金を上がり	-11.0298
片上大輔六段	-11.0323
に専念	-11.0323
に当てつつ	-11.0324
凄い	-11.0324
の逃げ場がない	-11.0325
小技	-11.0327
筋の歩を突き捨て	-11.0327
と打つ手がある	-11.0329
二の角	-11.0331
ような手つきで	-11.0341
投げ	-11.0342
金を投入	-11.0372
球	-11.0377
先手を持ちたい	-11.0377
分を消費し	-11.0378
大きな利かし	-11.0386
パス	-11.0389
と打つ狙い	-11.0412
を喫し	-11.0419
三の金	-11.0421
迫っている	-11.0422
敗れて	-11.0426
を求めた	-11.0426
おかしく	-11.0431
が指摘していた	-11.0431
持ち時間を使いきり	-11.0431
称	-11.0432
部門	-11.0433
感じがします	-11.0435
を打たずに	-11.0437
遅い	-11.045
日浦八段	-11.0452
本譜のように	-11.0471
瀬	-11.0485
至	-11.0486
昼	-11.0486
雀刺し	-11.0486
額	-11.0486
大胆な	-11.0486
次こそ	-11.0487
も考えられそうだ	-11.0488
女流二段	-11.049
休憩時間は	-11.0492
動いていった	-11.0495
今期順位戦	-11.0497
移動させた	-11.0503
飛車先を止め	-11.051
一の桂	-11.0521
ヒモをつけ	-11.0526
が絶好	-11.0533
歩を取り払った	-11.0541
従	-11.0541
しのぎ	-11.0544
もありそうだったが	-11.0545
反面	-11.0546
口元	-11.0547
ありそうな	-11.0555
分ほど使って	-11.0557
をみて	-11.0568
適当な受け	-11.0584
時ごろ	-11.0595
情	-11.0597
睨	-11.0597
バタバタと	-11.0597
淡々と	-11.0597
肩	-11.0597
消費時間の通計は	-11.0597
夕休	-11.0597
放送	-11.0598
(!)	-11.0598
攻めがつながる	-11.0598
初参加	-11.06
収まっ	-11.0609
ポイントを挙げ	-11.0615
ラン	-11.0618
●●○	-11.0626
飛車先を伸ばし	-11.0648
開き王手	-11.065
呼ばれ	-11.0653
誤算があった	-11.0653
湯	-11.0653
一長一短	-11.0653
中田功七段門下	-11.0653
喜	-11.0653
ティ	-11.0653
r	-11.0653
反応	-11.0657
どれほど	-11.0657
詰将棋	-11.066
に構えて	-11.0665
求	-11.0684
時を過ぎ	-11.0684
引かれて	-11.0698
飛車の横利きを止め	-11.0699
里	-11.0709
ノ	-11.0709
ワイシャツ姿	-11.0709
指し手のペース	-11.071
分ほどの考慮で	-11.071
を築き	-11.071
飛車先の歩を突いた	-11.071
切り替え	-11.0711
おにぎり	-11.0714
追い詰め	-11.0714
始	-11.0718
休憩に入	-11.072
筋を突き出す	-11.0721
そうなると	-11.0725
本局が初手合	-11.0747
慮	-11.0748
車	-11.0748
んですかね	-11.0752
が予想され	-11.0752
考	-11.0753
先手が指せそう	-11.0756
多く指されている	-11.0761
師	-11.0766
テレビ	-11.0766
細かく	-11.0766
五歩と突けば	-11.0766
村田智弘六段	-11.0766
黒星	-11.0766
はっきりしない	-11.0775
恐れもある	-11.0777
と逃げる手	-11.0791
ことができそうだ	-11.0793
露	-11.0795
ィ	-11.0822
矢	-11.0823
合駒請求	-11.0823
窪田義行六段	-11.0823
の構築	-11.0823
一時期	-11.0823
飛車の横利きを通す	-11.0825
の注文はな	-11.0845
静	-11.0875
ほうがよかった	-11.0878
臨	-11.088
軽快な	-11.088
真っ直ぐ	-11.088
単純な	-11.0882
使い道	-11.0891
高美濃囲い	-11.09
盛り上がって	-11.09
持久戦模様	-11.0902
田中寅彦九段	-11.0937
怪	-11.0937
春	-11.0937
雲	-11.0937
どう応じても	-11.0937
派手な	-11.0937
類似	-11.0938
決まり	-11.0939
あわせ	-11.0939
異なる	-11.0942
五の位	-11.0982
進んでいく	-11.0986
ファン	-11.0995
ぽ	-11.0995
規	-11.0995
下駄を預けた	-11.0995
昌	-11.0995
奇	-11.0995
周辺	-11.0995
曇り	-11.0996
を重ねて	-11.0997
感心	-11.1002
ということですか	-11.1009
▁小倉は	-11.1017
を終えた	-11.1045
績	-11.105
もありました	-11.1053
豚	-11.1053
を中心に	-11.1053
相手の出方	-11.1053
個	-11.1053
分を記録して	-11.1053
精	-11.1053
が挙がった	-11.1053
窮屈	-11.1053
控室の評判は	-11.1053
万全	-11.1054
の指し手は早い	-11.1056
に入りそうだ	-11.1058
本来	-11.1064
を主張する	-11.1068
結果的に	-11.1092
争	-11.1092
を含め	-11.1093
分将棋に入った	-11.1108
爆	-11.1112
目障りな	-11.1112
描	-11.1112
詳	-11.1112
ぜ	-11.1112
手放す	-11.1112
を発揮	-11.1112
小さく	-11.1112
の出前注文は	-11.1112
趣向	-11.1112
忙しく	-11.1112
必然	-11.1115
が考えられた	-11.1115
眠っていた	-11.1115
筋の歩を伸ばす	-11.1117
模様に進んでいる	-11.1147
利きを足し	-11.1168
隠	-11.117
と解説する	-11.1172
過去の実戦例	-11.1172
昇級争い	-11.1172
ような気がします	-11.1174
素早く	-11.1174
ほしい	-11.1176
陣形整備	-11.1179
プレッシャーを掛け	-11.1202
確保	-11.1217
面倒を見	-11.1218
佐藤康光	-11.1228
佐	-11.1229
投了図以下	-11.123
リットル	-11.123
が間に合えば	-11.123
・・・	-11.123
席を外していた	-11.1233
必要がありそうだ	-11.1235
時間以上考えている	-11.1235
成算	-11.1236
田中寅九段	-11.1241
こっち	-11.1255
急いで	-11.1259
攻め駒を責め	-11.1262
敷	-11.1289
公	-11.1289
砲	-11.1289
プレーオフ	-11.1289
先述の	-11.1289
進軍	-11.129
止まり	-11.129
▁藤森は	-11.1306
の活用を図る	-11.1308
玉側に	-11.131
も考えられるところ	-11.1318
いけそう	-11.1321
を防ぎ	-11.1342
くれれば	-11.1349
トーナメント	-11.1349
パンチ	-11.1349
が幸便	-11.1349
を聞いた	-11.1349
くっつけ	-11.1349
締まる	-11.1351
指す手が難しい	-11.1352
考え続け	-11.1364
を考えると	-11.137
が飛車取りになる	-11.1384
後手が勝ちそう	-11.1388
囲いが完成	-11.1398
打たず	-11.1407
が見つかっていない	-11.1409
未知の局面	-11.1409
杉本昌隆七段	-11.1409
が務める	-11.1409
構わない	-11.141
気持ち悪い	-11.1412
お返し	-11.1418
木村美濃	-11.1418
を選んで	-11.1451
気をつけ	-11.1456
具体的に	-11.1467
予想された	-11.1468
興	-11.147
包	-11.147
時間を切っている	-11.147
歩越し銀には歩で対抗	-11.147
大駒は近づけて受けよ	-11.147
映し出され	-11.147
戦力不足	-11.1471
と思ったのですが	-11.1473
狭くなる	-11.1476
を務める	-11.1505
位を確保	-11.153
P	-11.1531
倍	-11.1531
副	-11.1531
中途半端	-11.1531
暑	-11.1531
持ち時間の残りは	-11.1531
ジャ	-11.1532
並んでいる	-11.1532
金銀の連結	-11.1532
盛り上がる	-11.1535
先手玉に詰みはない	-11.1538
ことにより	-11.1542
展開にしたい	-11.1562
本日の対局立会人	-11.1567
っちゃ	-11.1572
を通し	-11.1579
貫	-11.1588
しまいました	-11.159
金沢五段	-11.1592
参考	-11.1592
駒割は	-11.1593
某棋士	-11.1593
節約	-11.1593
のぞき	-11.1593
よく見る	-11.1593
チャンスを待つ	-11.1594
歩を取り払う	-11.1595
が無い	-11.16
に狙いをつけ	-11.1631
玉に近づけ	-11.1654
そっぽ	-11.1654
ぶつかり	-11.1654
拓	-11.1654
引かれた	-11.1654
樹	-11.1654
手ごとに	-11.1655
突っ掛け	-11.1656
五同歩と応じる	-11.1661
を活か	-11.1667
と応じて	-11.1709
認	-11.1716
主導権を握	-11.1716
森下卓九段	-11.1716
加瀬純一六段門下	-11.1716
小刻みに	-11.1716
のぞく	-11.1716
ことが可能だ	-11.1717
未然に	-11.1718
顔を出し	-11.1738
棋界	-11.1739
に向けて	-11.1747
角には角	-11.1748
御上段の間	-11.1778
豊川孝弘七段	-11.1779
右が直近	-11.1779
悠然と	-11.1779
が有力視されている	-11.1779
研究会	-11.1784
保留していた	-11.1829
も狙っている	-11.1842
米長	-11.1842
を崩す	-11.1843
勝てる	-11.1846
交換を迫った	-11.1885
が大きそう	-11.1888
パタパタと	-11.1896
シリーズ	-11.1905
いずれにしても	-11.1905
はたまらない	-11.1905
着実な攻め	-11.1905
<	-11.1905
を思わせる	-11.1905
接近	-11.1906
打たない	-11.1919
露出	-11.1935
攻めに使え	-11.194
浮	-11.1949
を増やす	-11.195
北	-11.1966
ざるそば	-11.1968
陥	-11.1968
博	-11.1968
スローペース	-11.1968
ラッシュ	-11.1968
陽動振り飛車	-11.1968
を急いだ	-11.1969
の威力	-11.197
にいっている	-11.1972
少々	-11.1972
分に再開	-11.1973
を持たれ	-11.1974
四歩と突かれ	-11.1975
パッと見	-11.1977
棒	-11.1978
というわけで	-11.1985
字	-11.2032
豪	-11.2032
をキープ	-11.2032
品	-11.2033
沿	-11.2033
情報	-11.2033
根元の	-11.2033
最初に	-11.2033
変わる	-11.2033
バランス重視の	-11.2033
持久戦志向	-11.2036
尽くし	-11.2036
を増やし	-11.2079
詰	-11.2086
ホテル	-11.2097
盆	-11.2097
あっという間に	-11.2097
▁本局は千日手指し直し局	-11.2097
兄弟子	-11.2097
も視野に入れている	-11.2098
まっすぐ	-11.2098
最強の	-11.2099
どうなるか	-11.21
を維持し	-11.2101
感想戦コメント	-11.2102
をにらんで	-11.2108
を整備する	-11.2113
おかないと	-11.2114
を解消し	-11.2115
歩を交換し	-11.2123
捕まっている	-11.2123
は以下の通り	-11.2127
の弱点である	-11.2128
を作らない	-11.2129
紐	-11.2162
一目散に	-11.2162
▁本局の記録係は折田翔吾	-11.2162
三枚堂達也	-11.2162
玉飛接近	-11.2162
年ぶり	-11.2166
がいなくなった	-11.2173
宮	-11.2225
棋戦優勝は計	-11.2227
材	-11.2227
中継室に来訪した	-11.2227
承	-11.2227
危険地帯	-11.2227
が欲しい	-11.2228
飛車先を伸ばす	-11.2232
目標にされ	-11.2241
を利用して	-11.2249
善	-11.2292
殺	-11.2292
クサビ	-11.2293
千駄ヶ谷	-11.2293
大盤解説	-11.2293
手を変えた	-11.2293
放り込んだ	-11.2293
ソッポ	-11.2293
援軍を送	-11.2293
脇システム	-11.2293
宣言	-11.2293
穴熊のハッチを閉め	-11.2294
食いつき	-11.2295
困難	-11.2295
を入手して	-11.2299
囲いの堅さ	-11.2302
で行われている	-11.2304
捌け	-11.2326
ますからね	-11.2339
いたままでは	-11.234
渋	-11.2349
許さ	-11.2352
遅刻	-11.2358
朗	-11.2359
測	-11.2359
束	-11.2359
になろうとしている	-11.236
話は早い	-11.236
傾向	-11.2361
並び	-11.2361
飛車角両取り	-11.2364
底	-11.2377
を引き締める	-11.2377
掛かって	-11.2387
智	-11.2424
頻	-11.2426
もしかしたら	-11.2426
船江恒平五段	-11.2426
被	-11.2426
食いちぎった	-11.2426
タブレット端末を利用した	-11.2426
亘	-11.2426
を築いた	-11.2426
話題	-11.2427
角筋を通す	-11.2428
飛車の引き場所	-11.2431
威	-11.244
取っておく	-11.2465
攻めに活用	-11.248
かがポイント	-11.2487
怖	-11.2491
安恵照剛八段門下	-11.2493
松尾歩七段	-11.2493
角金交換	-11.2493
が続いた	-11.2494
服部	-11.2494
到着	-11.2494
ここにきて	-11.2494
検討通りに進んでいる	-11.2495
挟撃態勢	-11.2495
玉周り	-11.2495
持ち時間各	-11.2496
席を外し	-11.2499
絶好の	-11.2502
組み換え	-11.252
が王手にならない	-11.2526
前例を離れ	-11.2536
竹	-11.256
男	-11.2561
積	-11.2561
大局観	-11.2561
御下段の間	-11.2561
ゼロ	-11.2561
月に行われた	-11.2561
郷田真隆九段	-11.2562
突撃	-11.2562
魅力的	-11.2568
当たる	-11.2586
と受けられて	-11.261
分以上の長考	-11.2622
夕食時の注文は	-11.2629
縛	-11.2629
分近い考慮で	-11.2629
ひたすら	-11.2629
揃	-11.2629
放っておくと	-11.2629
一石二鳥	-11.2629
尚	-11.2629
満を持して	-11.2629
ヒモがついている	-11.2629
上部開拓	-11.2629
申	-11.2629
踏ん張	-11.2629
動けない	-11.2629
出演	-11.2631
との見解を示し	-11.2661
てしまおう	-11.2679
黒	-11.2696
たたいて	-11.2697
ベテラン	-11.2697
厳しさ	-11.2697
泉正樹八段	-11.2697
預	-11.2697
局に絞られ	-11.2697
を頼りに	-11.2697
動棋譜更新システムを使用して中継	-11.2697
翼	-11.2697
微妙なところ	-11.2698
必殺	-11.2698
伸び伸び	-11.2699
休憩前と合わせて	-11.2707
を確認する	-11.2716
世に出	-11.2763
業	-11.2766
夢	-11.2766
弥	-11.2766
一段落	-11.2766
▁これまでの対戦成績は	-11.2766
がいなくなれば	-11.2766
放っておけば	-11.2766
仕組みだ	-11.2766
証	-11.2766
角金両取り	-11.2766
に活を入れる	-11.2781
に注目したい	-11.2792
を打たせて	-11.2815
広瀬章人	-11.2833
揮	-11.2836
制空権	-11.2836
すっきり	-11.2836
内容	-11.2836
神経を使う	-11.2836
ジュース	-11.2836
駒の効率	-11.2837
攻めを継続	-11.2842
打ち込みの隙	-11.2855
盛	-11.2897
縮	-11.2906
譲	-11.2906
つぶやく	-11.2906
宮田敦	-11.2906
あいさつ	-11.2906
伊藤真吾五段	-11.2906
無条件で	-11.2906
を用いる	-11.2907
を遅らせ	-11.2912
上に逃げ	-11.294
に達し	-11.2964
棋士室を訪れている	-11.2976
意思表示	-11.2976
伊藤果八段	-11.2976
棋譜コメント入力	-11.2976
ぶつかる	-11.2976
裂	-11.2976
青野照市九段	-11.2976
とりあえず	-11.2976
阿久津主税八段	-11.2976
どうなっているか	-11.2976
参照	-11.2976
が広がる	-11.2976
揺さぶりをかける	-11.2977
強力な	-11.2977
分の遅刻	-11.2978
渡せない	-11.2978
もらった	-11.2989
を手にして	-11.3035
屋	-11.3046
識	-11.3046
上着を脱いで	-11.3047
ヒレカツ定食	-11.3047
新人王戦	-11.3047
腰を落として	-11.3047
オールラウンダー	-11.3047
ぼんやり	-11.3047
食いちぎる	-11.3047
勝利を収めている	-11.3047
づらかった	-11.3047
読みきっている	-11.3047
攻め立てる	-11.3047
何を指すか	-11.3047
修正	-11.3049
を上回る	-11.3049
勝率ランキング	-11.3049
が間に合って	-11.3052
が利きそうだ	-11.3062
で対戦し	-11.307
から遠ざか	-11.3076
○●○	-11.31
技をかけ	-11.3112
低	-11.3116
バッサリ	-11.3118
敏	-11.3118
鳥	-11.3118
丸山ワクチン	-11.3118
飛ばす	-11.3118
飛車の成り込み	-11.3118
駒損を回復	-11.3118
]	-11.3118
までは進みそうだ	-11.3118
体を揺らし	-11.3118
に沈む	-11.3118
記者が対局室に入ると	-11.3118
主導権	-11.3118
抜群	-11.3118
ネクタイ	-11.3118
を可能にした	-11.3118
油断	-11.3119
と取らせれば	-11.3119
つないで	-11.3125
了	-11.319
m	-11.319
斉	-11.319
芽	-11.319
と言えそうだ	-11.319
村田顕弘五段	-11.319
膨	-11.319
住	-11.319
と告げ	-11.319
ともかく	-11.3191
を感じさせる	-11.3191
攻めをつなぐ	-11.3192
指摘されていた	-11.3193
▁再開から	-11.3194
とは言え	-11.3203
をみせ	-11.3209
竜の横利き	-11.3216
節	-11.3259
駄	-11.3259
攻めが細い	-11.3259
丸山忠久九段	-11.3263
作戦の岐路	-11.3263
コーヒー	-11.3263
時半ごろ	-11.3263
追随	-11.3263
を好む	-11.3264
勝数ランキング	-11.3264
を突かれ	-11.3302
攻	-11.3308
威張	-11.3319
静岡	-11.3336
変わらない	-11.3336
駒運び	-11.3336
[	-11.3336
蛮	-11.3336
を問う	-11.3336
手詰まり	-11.3336
伸ばせ	-11.3336
が飛車に当たる	-11.3337
が見えてくる	-11.334
パタパタと手が進	-11.3346
に組み上げた	-11.3353
よくなりそう	-11.3388
由	-11.3408
炊	-11.3409
鴨	-11.3409
との比較	-11.3409
荒	-11.3409
ガツンと	-11.3409
溜	-11.3409
優劣	-11.341
当たりが強い	-11.341
引かずに	-11.341
新たな	-11.341
動画	-11.3411
穏やか	-11.3422
(0.3	-11.3423
積極的	-11.3437
権	-11.3482
競	-11.3483
奥	-11.3483
詰むや詰まざるや	-11.3483
の様相	-11.3483
振り直した	-11.3483
漏	-11.3483
終わって	-11.3486
を迎える	-11.3492
時半過ぎ	-11.3493
画	-11.3557
声があが	-11.3557
微	-11.3558
複	-11.3558
ズバッと	-11.3558
リズム	-11.3558
羽生善治三冠	-11.3558
さまざまな	-11.3558
地下鉄飛車	-11.3558
勘定	-11.3558
増えた	-11.3591
暴	-11.3598
崎	-11.3629
沈	-11.3633
飲み物	-11.3633
巡	-11.3633
ばっさり	-11.3633
L	-11.3634
を開く	-11.3644
考慮中に残り	-11.3683
がかかっ	-11.37
依然	-11.3704
後回しに	-11.3709
曲	-11.3709
初志貫徹	-11.3709
▁本局の記録係は森下裕也	-11.3709
ポジション	-11.3709
寒	-11.3709
境	-11.3709
独特の	-11.3709
が手を止めた	-11.3711
きれるかどうか	-11.3721
を開ける	-11.3729
形を整えた	-11.3747
筋の突き捨てを入れ	-11.3777
を厚くする	-11.3779
チャン	-11.3783
倉	-11.3784
永	-11.3785
ハンバーグ	-11.3785
俊	-11.3785
館	-11.3785
ぇ	-11.3792
昇	-11.3858
亮	-11.3859
文	-11.3861
便	-11.3862
壊	-11.3862
毎	-11.3862
投	-11.3911
専	-11.394
衝	-11.394
塾	-11.394
首	-11.3951
海	-11.4018
均	-11.4018
非	-11.4096
沢	-11.4096
舟	-11.4097
願	-11.4176
料	-11.4176
滞	-11.4176
胆	-11.4176
歓	-11.4176
援	-11.4255
属	-11.4256
網	-11.4256
惑	-11.4256
礼	-11.4329
尽	-11.4332
i	-11.4336
略	-11.4336
籍	-11.4337
畳	-11.4337
ぷ	-11.4337
因	-11.4418
戸	-11.4418
蓄	-11.45
胸	-11.45
置	-11.4554
鉄	-11.4582
告	-11.4582
劣	-11.4582
像	-11.4582
ゅ	-11.4583
植	-11.4583
売	-11.4666
陰	-11.4666
哲	-11.4666
章	-11.4666
狭	-11.4697
奈	-11.4749
催	-11.4749
栄	-11.475
升	-11.475
菜	-11.4835
熟	-11.4835
剥	-11.4835
紛	-11.4835
暗	-11.4835
国	-11.4835
服	-11.4919
器	-11.5006
産	-11.5006
等	-11.5006
窓	-11.5006
辛	-11.5071
版	-11.5093
習	-11.5093
掃	-11.5181
散	-11.5181
ぴ	-11.5181
兼	-11.5181
秀	-11.5259
嘆	-11.5269
頬	-11.527
即	-11.5332
机	-11.5359
牛	-11.5359
汁	-11.5359
兄	-11.5449
炒	-11.5449
悟	-11.5449
提	-11.5449
夕	-11.5539
匂	-11.554
之	-11.554
怠	-11.554
党	-11.561
押	-11.5625
報	-11.5631
吾	-11.5631
憶	-11.5632
携	-11.5632
答	-11.5668
n	-11.5724
偏	-11.5724
託	-11.5724
菊	-11.5724
S	-11.5815
菓	-11.5817
富	-11.5817
ザ	-11.5818
眠	-11.5906
責	-11.5911
濃	-11.5912
袋	-11.5912
賢	-11.5912
佳	-11.5912
氏	-11.5912
s	-11.6007
駆	-11.6007
刀	-11.6007
b	-11.6007
借	-11.6007
買	-11.6103
飾	-11.6103
編	-11.6103
撮	-11.6103
件	-11.6103
伸	-11.6198
T	-11.62
瞑	-11.62
府	-11.62
降	-11.6286
.	-11.6288
導	-11.6298
爽	-11.6298
踏	-11.6393
印	-11.6397
如	-11.6397
鮮	-11.6397
述	-11.6488
千	-11.6496
緒	-11.6497
将	-11.6532
清	-11.6598
波	-11.6598
負	-11.6653
支	-11.6684
判	-11.6699
巻	-11.6798
冒	-11.6804
円	-11.6804
訳	-11.6804
到	-11.6906
窮	-11.6908
憂	-11.6908
哉	-11.6908
恵	-11.6908
避	-11.699
恒	-11.7013
講	-11.7013
夫	-11.7119
騎	-11.7119
拭	-11.7119
忍	-11.7119
錯	-11.7119
釣	-11.7119
園	-11.712
社	-11.7227
騒	-11.7227
宅	-11.7335
英	-11.7336
占	-11.7336
呈	-11.7336
芸	-11.7336
覧	-11.7336
黙	-11.744
悲	-11.7445
浜	-11.7445
工	-11.7445
税	-11.7445
浴	-11.7445
荷	-11.7445
敬	-11.7446
粋	-11.7557
希	-11.7557
探	-11.7642
処	-11.7667
豆	-11.7669
剣	-11.7669
往	-11.7669
肘	-11.7669
寿	-11.7669
棋	-11.7725
改	-11.7782
童	-11.7783
逸	-11.7783
却	-11.7783
尾	-11.7894
兵	-11.7897
丁	-11.7897
徹	-11.7898
幕	-11.8013
揚	-11.8014
軟	-11.8014
恐	-11.8032
唯	-11.8129
ゼ	-11.8131
秋	-11.8131
J	-11.8132
庭	-11.8132
輩	-11.825
設	-11.825
梨	-11.825
池	-11.8251
泣	-11.8251
肇	-11.8251
以	-11.8317
資	-11.8371
慈	-11.8371
麗	-11.8371
忙	-11.849
獣	-11.8492
皆	-11.8493
柔	-11.8493
吉	-11.8615
拳	-11.8616
障	-11.8616
抗	-11.874
鶏	-11.8741
薬	-11.8741
士	-11.8867
担	-11.8867
堂	-11.8867
町	-11.8868
魚	-11.8868
符	-11.8868
綱	-11.8868
吹	-11.8868
功	-11.899
隆	-11.8993
険	-11.8996
伴	-11.8996
宙	-11.8996
我	-11.8996
熊	-11.8996
刺	-11.9026
寺	-11.9125
彦	-11.9125
拍	-11.9126
柱	-11.9126
題	-11.9256
江	-11.9258
齢	-11.9258
孝	-11.9258
柄	-11.9258
針	-11.9384
街	-11.9391
暖	-11.9391
基	-11.9512
留	-11.9524
録	-11.9525
随	-11.9526
検	-11.9526
板	-11.9526
紅	-11.9526
翌	-11.9526
盟	-11.9526
暇	-11.9526
欄	-11.9526
脳	-11.9526
O	-11.9526
l	-11.9663
沼	-11.9801
趣	-11.9801
緑	-11.9802
造	-11.9802
察	-11.9802
誉	-11.9802
京	-11.9942
餅	-11.9943
討	-11.9943
絵	-11.9943
儀	-11.9943
輝	-11.9943
餌	-11.9943
製	-11.9943
呑	-12.0086
毫	-12.0086
誇	-12.0086
ァ	-12.0086
易	-12.0086
紺	-12.0086
珍	-12.023
与	-12.023
桜	-12.0231
貼	-12.0231
賛	-12.0378
%	-12.0378
冬	-12.0378
泳	-12.0378
駅	-12.0378
眉	-12.0378
致	-12.0519
模	-12.0527
岩	-12.0527
怒	-12.0527
赤	-12.0527
津	-12.0527
任	-12.0527
河	-12.0527
備	-12.059
域	-12.0678
圏	-12.0678
幹	-12.0678
v	-12.0678
楼	-12.0678
房	-12.0679
阪	-12.0827
愕	-12.0832
典	-12.0832
徳	-12.0832
染	-12.0832
滅	-12.0832
雪	-12.0833
費	-12.0976
芳	-12.0988
咲	-12.0989
胡	-12.0989
雅	-12.0989
呟	-12.0989
旨	-12.0989
旬	-12.0989
耐	-12.1128
ヶ	-12.1147
州	-12.1147
索	-12.1308
象	-12.1309
序	-12.1471
店	-12.1472
穏	-12.1472
隅	-12.1472
厘	-12.1472
妖	-12.1473
縄	-12.1473
標	-12.1628
唐	-12.1639
玄	-12.1639
啓	-12.1639
碁	-12.1639
写	-12.1639
添	-12.1639
喫	-12.1677
験	-12.1808
ヘ	-12.1809
頂	-12.1979
女	-12.1979
跡	-12.198
誌	-12.1981
可	-12.1981
掲	-12.1981
塩	-12.1981
汗	-12.1981
D	-12.1981
疲	-12.1981
才	-12.1981
o	-12.2155
列	-12.2156
卵	-12.2157
宗	-12.2157
某	-12.2333
建	-12.2333
宝	-12.2334
蒸	-12.2335
株	-12.2335
叫	-12.2517
是	-12.2517
職	-12.2517
抱	-12.2648
統	-12.2702
,	-12.2702
翔	-12.2702
庫	-12.2702
奏	-12.2702
矛	-12.2702
―	-12.2702
旧	-12.2702
昨	-12.2876
領	-12.289
暫	-12.2891
”	-12.2891
仰	-12.2891
裸	-12.2891
刃	-12.2891
環	-12.2891
蓋	-12.2891
鞄	-12.3083
干	-12.3083
t	-12.3083
句	-12.3083
促	-12.3083
挽	-12.3083
百	-12.3083
桃	-12.3083
穂	-12.3083
V	-12.3083
滝	-12.3083
演	-12.3274
嬉	-12.3279
覇	-12.3279
叱	-12.3279
給	-12.3279
殴	-12.3279
団	-12.3279
ヨ	-12.3279
埼	-12.3479
俵	-12.3479
缶	-12.3479
筆	-12.3479
請	-12.3479
研	-12.3479
烏	-12.3479
紫	-12.3479
涼	-12.3479
衛	-12.3682
林	-12.3682
毒	-12.3683
停	-12.3683
伺	-12.3683
嗣	-12.3683
伏	-12.3683
隊	-12.3683
須	-12.3683
R	-12.3684
慶	-12.3889
罠	-12.3891
腐	-12.3891
育	-12.3892
麻	-12.3892
枠	-12.3892
委	-12.3892
遣	-12.3892
剛	-12.3892
棄	-12.4104
刊	-12.4104
彼	-12.4104
老	-12.4104
殿	-12.4104
飽	-12.4104
怜	-12.4104
寸	-12.4104
捉	-12.4104
貯	-12.4105
辺	-12.4305
譜	-12.432
嶋	-12.4322
僅	-12.4322
★	-12.4322
巨	-12.4322
荘	-12.4322
坂	-12.4544
勘	-12.477
誕	-12.4771
橋	-12.4997
布	-12.5003
瞬	-12.5232
登	-12.5241
羽	-12.5484
扇	-12.5485
慢	-12.5736
依	-12.5736
換	-12.5811
豊	-12.5985
葉	-12.5991
晶	-12.5992
脅	-12.5992
澤	-12.6255
堀	-12.6255
掘	-12.6255
値	-12.6264
晃	-12.6526
甲	-12.6526
M	-12.6803
齋	-12.6803
ぺ	-12.7089
容	-12.7383
崇	-12.7383
虎	-12.7383
椿	-12.7383
聡	-12.7683
展	-12.7684
状	-12.7685
郷	-12.7685
群	-12.7686
魔	-12.7686
雀	-12.7686
拠	-12.7997
議	-12.7999
N	-12.7999
K	-12.8321
充	-12.8653
茂	-12.8655
鵜	-12.8655
謙	-12.8655
仁	-12.8655
札	-12.8998
頓	-12.8999
織	-12.8999
況	-12.9
凄	-12.9346
凡	-12.9353
卓	-12.9356
聖	-12.9356
宣	-12.9726
互	-13.006
伊	-13.0111
迎	-13.0423
簡	-13.051
魅	-13.0922
態	-13.0926
疑	-13.0928
H	-13.0928
澄	-13.0928
菅	-13.1363
米	-13.1816
弁	-13.1817
油	-13.1817
労	-13.1817
草	-13.1817
圭	-13.1818
範	-13.2293
励	-13.2294
児	-13.2781
鎖	-13.2794
船	-13.2794
閣	-13.2794
仮	-13.3233
邪	-13.332
串	-13.332
彰	-13.332
丈	-13.332
坪	-13.3321
塚	-13.3874
淡	-13.3875
候	-13.3876
訪	-13.4079
鎮	-13.4461
匠	-13.4464
祭	-13.4464
捨	-13.5057
浦	-13.5083
双	-13.5749
阿	-13.5755
寧	-13.5756
既	-13.5902
午	-13.6421
警	-13.647
究	-13.647
克	-13.647
鍋	-13.647
紳	-13.7228
曇	-13.723
獲	-13.7236
顕	-13.7237
侵	-13.7238
価	-13.7239
杉	-13.8071
抵	-13.8072
堤	-13.8073
課	-13.8981
稲	-13.9981
庵	-14.1092
条	-14.1092
慣	-14.1862
抑	-14.2131
斜	-14.2339
又	-14.3762
維	-14.377
斎	-14.3771
惜	-14.5318
央	-14.5435
戒	-14.5437
吊	-14.5438
桐	-14.7436
拡	-14.9933
寅	-14.9934
敦	-14.9936
牧	-14.9937
糸	-14.9938
鈴	-14.9938
据	-15.3265
旦	-15.8264
診	-15.8268
梶	-15.827
償	-15.827
雁	-15.8271
坐	-16.8179
峻	-16.818
磐	-16.8181
排	-16.8182
忘	-16.8183
但	-16.8184
膠	-16.8185
綺	-16.8186
冴	-16.8187
逮	-16.8188
召	-16.8189
冗	-16.819
釘	-16.8191
勉	-16.8192
鍛	-16.8193
隼	-16.8194
陵	-16.8195
與	-16.8196
渾	-16.8197
拮	-16.8198
覗	-16.8199
國	-16.82
猶	-16.8201
炸	-16.8202
披	-16.8203
筒	-16.8204
盲	-16.8205
拗	-16.8206
厄	-16.8207
瑠	-16.8208
姜	-16.8209
ヵ	-16.821
衡	-16.8211
倫	-16.8212
巳	-16.8213
朴	-16.8214
洸	-16.8215
斗	-16.8216
邦	-16.8217
蓉	-16.8218
芙	-16.8219
咎	-16.822
貧	-16.8221
挨	-16.8222
拶	-16.8223
剱	-16.8224
漂	-16.8225
噌	-16.8226
距	-16.8227
昭	-16.8228
叡	-16.8229
緊	-16.823
乏	-16.8231
撤	-16.8232
套	-16.8233
諦	-16.8234
妥	-16.8235
眞	-16.8236
徐	-16.8237
忠	-16.8238
徴	-16.8239
般	-16.824
紹	-16.8241
輔	-16.8242
肢	-16.8243
尋	-16.8244
拾	-16.8245
牲	-16.8246
繋	-16.8247
酬	-16.8248
魁	-16.8249
犠	-16.825
遮	-16.8251
較	-16.8252
埋	-16.8253
雰	-16.8254
絡	-16.8255
牽	-16.8256
響	-16.8257
普	-16.8258
摘	-16.8259
ォ	-16.826
挑	-16.8261
慎	-16.8262
裕	-16.8263
奨	-16.8264
払	-16.8265
繰	-16.8266
畠	-16.8267
係	-16.8268
窪	-16.8268
跳	-16.8269
控	-16.827
壱	-16.8271
憩	-16.8271
斐	-16.8271
